node {
  name: "input"
  op: "Placeholder"
  attr {
    key: "dtype"
    value {
      type: DT_FLOAT
    }
  }
  attr {
    key: "shape"
    value {
      shape {
        unknown_rank: true
      }
    }
  }
}
node {
  name: "inputL"
  op: "Placeholder"
  attr {
    key: "dtype"
    value {
      type: DT_FLOAT
    }
  }
  attr {
    key: "shape"
    value {
      shape {
        unknown_rank: true
      }
    }
  }
}
node {
  name: "Conv1_layer/W"
  op: "VariableV2"
  attr {
    key: "container"
    value {
      s: ""
    }
  }
  attr {
    key: "dtype"
    value {
      type: DT_FLOAT
    }
  }
  attr {
    key: "shape"
    value {
      shape {
        dim {
          size: 3
        }
        dim {
          size: 3
        }
        dim {
          size: 1
        }
        dim {
          size: 6
        }
      }
    }
  }
  attr {
    key: "shared_name"
    value {
      s: ""
    }
  }
}
node {
  name: "Conv1_layer/Const/Const"
  op: "Const"
  attr {
    key: "dtype"
    value {
      type: DT_INT32
    }
  }
  attr {
    key: "value"
    value {
      tensor {
        dtype: DT_INT32
        tensor_shape {
          dim {
            size: 4
          }
        }
        tensor_content: "\003\000\000\000\003\000\000\000\001\000\000\000\006\000\000\000"
      }
    }
  }
}
node {
  name: "Conv1_layer/RandomNormal"
  op: "RandomStandardNormal"
  input: "Conv1_layer/Const/Const"
  attr {
    key: "T"
    value {
      type: DT_INT32
    }
  }
  attr {
    key: "dtype"
    value {
      type: DT_FLOAT
    }
  }
  attr {
    key: "seed"
    value {
      i: 0
    }
  }
  attr {
    key: "seed2"
    value {
      i: 0
    }
  }
}
node {
  name: "Conv1_layer/W_assign"
  op: "Assign"
  input: "Conv1_layer/W"
  input: "Conv1_layer/RandomNormal"
  attr {
    key: "T"
    value {
      type: DT_FLOAT
    }
  }
  attr {
    key: "use_locking"
    value {
      b: true
    }
  }
  attr {
    key: "validate_shape"
    value {
      b: true
    }
  }
}
node {
  name: "Conv1_layer/B"
  op: "VariableV2"
  attr {
    key: "container"
    value {
      s: ""
    }
  }
  attr {
    key: "dtype"
    value {
      type: DT_FLOAT
    }
  }
  attr {
    key: "shape"
    value {
      shape {
        dim {
          size: 6
        }
      }
    }
  }
  attr {
    key: "shared_name"
    value {
      s: ""
    }
  }
}
node {
  name: "Conv1_layer/Const_1/Const"
  op: "Const"
  attr {
    key: "dtype"
    value {
      type: DT_INT32
    }
  }
  attr {
    key: "value"
    value {
      tensor {
        dtype: DT_INT32
        tensor_shape {
          dim {
            size: 1
          }
        }
        int_val: 6
      }
    }
  }
}
node {
  name: "Conv1_layer/RandomNormal_1"
  op: "RandomStandardNormal"
  input: "Conv1_layer/Const_1/Const"
  attr {
    key: "T"
    value {
      type: DT_INT32
    }
  }
  attr {
    key: "dtype"
    value {
      type: DT_FLOAT
    }
  }
  attr {
    key: "seed"
    value {
      i: 0
    }
  }
  attr {
    key: "seed2"
    value {
      i: 0
    }
  }
}
node {
  name: "Conv1_layer/B_assign"
  op: "Assign"
  input: "Conv1_layer/B"
  input: "Conv1_layer/RandomNormal_1"
  attr {
    key: "T"
    value {
      type: DT_FLOAT
    }
  }
  attr {
    key: "use_locking"
    value {
      b: true
    }
  }
  attr {
    key: "validate_shape"
    value {
      b: true
    }
  }
}
node {
  name: "Conv1_layer/Conv"
  op: "Conv2D"
  input: "input"
  input: "Conv1_layer/W"
  attr {
    key: "T"
    value {
      type: DT_FLOAT
    }
  }
  attr {
    key: "data_format"
    value {
      s: "NHWC"
    }
  }
  attr {
    key: "dilations"
    value {
      list {
        i: 1
        i: 1
        i: 1
        i: 1
      }
    }
  }
  attr {
    key: "explicit_paddings"
    value {
      list {
      }
    }
  }
  attr {
    key: "padding"
    value {
      s: "VALID"
    }
  }
  attr {
    key: "strides"
    value {
      list {
        i: 1
        i: 1
        i: 1
        i: 1
      }
    }
  }
  attr {
    key: "use_cudnn_on_gpu"
    value {
      b: true
    }
  }
}
node {
  name: "Conv1_layer/Bias"
  op: "BiasAdd"
  input: "Conv1_layer/Conv"
  input: "Conv1_layer/B"
  attr {
    key: "T"
    value {
      type: DT_FLOAT
    }
  }
  attr {
    key: "data_format"
    value {
      s: "NHWC"
    }
  }
}
node {
  name: "Conv1_layer/Relu"
  op: "Relu"
  input: "Conv1_layer/Bias"
  attr {
    key: "T"
    value {
      type: DT_FLOAT
    }
  }
}
node {
  name: "Conv1_layer/Pool"
  op: "AvgPool"
  input: "Conv1_layer/Relu"
  attr {
    key: "T"
    value {
      type: DT_FLOAT
    }
  }
  attr {
    key: "data_format"
    value {
      s: "NHWC"
    }
  }
  attr {
    key: "ksize"
    value {
      list {
        i: 1
        i: 2
        i: 2
        i: 1
      }
    }
  }
  attr {
    key: "padding"
    value {
      s: "VALID"
    }
  }
  attr {
    key: "strides"
    value {
      list {
        i: 1
        i: 2
        i: 2
        i: 1
      }
    }
  }
}
node {
  name: "Conv2_layer/W"
  op: "VariableV2"
  attr {
    key: "container"
    value {
      s: ""
    }
  }
  attr {
    key: "dtype"
    value {
      type: DT_FLOAT
    }
  }
  attr {
    key: "shape"
    value {
      shape {
        dim {
          size: 3
        }
        dim {
          size: 3
        }
        dim {
          size: 6
        }
        dim {
          size: 16
        }
      }
    }
  }
  attr {
    key: "shared_name"
    value {
      s: ""
    }
  }
}
node {
  name: "Conv2_layer/Const/Const"
  op: "Const"
  attr {
    key: "dtype"
    value {
      type: DT_INT32
    }
  }
  attr {
    key: "value"
    value {
      tensor {
        dtype: DT_INT32
        tensor_shape {
          dim {
            size: 4
          }
        }
        tensor_content: "\003\000\000\000\003\000\000\000\006\000\000\000\020\000\000\000"
      }
    }
  }
}
node {
  name: "Conv2_layer/RandomNormal"
  op: "RandomStandardNormal"
  input: "Conv2_layer/Const/Const"
  attr {
    key: "T"
    value {
      type: DT_INT32
    }
  }
  attr {
    key: "dtype"
    value {
      type: DT_FLOAT
    }
  }
  attr {
    key: "seed"
    value {
      i: 0
    }
  }
  attr {
    key: "seed2"
    value {
      i: 0
    }
  }
}
node {
  name: "Conv2_layer/W_assign"
  op: "Assign"
  input: "Conv2_layer/W"
  input: "Conv2_layer/RandomNormal"
  attr {
    key: "T"
    value {
      type: DT_FLOAT
    }
  }
  attr {
    key: "use_locking"
    value {
      b: true
    }
  }
  attr {
    key: "validate_shape"
    value {
      b: true
    }
  }
}
node {
  name: "Conv2_layer/B"
  op: "VariableV2"
  attr {
    key: "container"
    value {
      s: ""
    }
  }
  attr {
    key: "dtype"
    value {
      type: DT_FLOAT
    }
  }
  attr {
    key: "shape"
    value {
      shape {
        dim {
          size: 16
        }
      }
    }
  }
  attr {
    key: "shared_name"
    value {
      s: ""
    }
  }
}
node {
  name: "Conv2_layer/Const_1/Const"
  op: "Const"
  attr {
    key: "dtype"
    value {
      type: DT_INT32
    }
  }
  attr {
    key: "value"
    value {
      tensor {
        dtype: DT_INT32
        tensor_shape {
          dim {
            size: 1
          }
        }
        int_val: 16
      }
    }
  }
}
node {
  name: "Conv2_layer/RandomNormal_1"
  op: "RandomStandardNormal"
  input: "Conv2_layer/Const_1/Const"
  attr {
    key: "T"
    value {
      type: DT_INT32
    }
  }
  attr {
    key: "dtype"
    value {
      type: DT_FLOAT
    }
  }
  attr {
    key: "seed"
    value {
      i: 0
    }
  }
  attr {
    key: "seed2"
    value {
      i: 0
    }
  }
}
node {
  name: "Conv2_layer/B_assign"
  op: "Assign"
  input: "Conv2_layer/B"
  input: "Conv2_layer/RandomNormal_1"
  attr {
    key: "T"
    value {
      type: DT_FLOAT
    }
  }
  attr {
    key: "use_locking"
    value {
      b: true
    }
  }
  attr {
    key: "validate_shape"
    value {
      b: true
    }
  }
}
node {
  name: "Conv2_layer/Conv"
  op: "Conv2D"
  input: "Conv1_layer/Pool"
  input: "Conv2_layer/W"
  attr {
    key: "T"
    value {
      type: DT_FLOAT
    }
  }
  attr {
    key: "data_format"
    value {
      s: "NHWC"
    }
  }
  attr {
    key: "dilations"
    value {
      list {
        i: 1
        i: 1
        i: 1
        i: 1
      }
    }
  }
  attr {
    key: "explicit_paddings"
    value {
      list {
      }
    }
  }
  attr {
    key: "padding"
    value {
      s: "VALID"
    }
  }
  attr {
    key: "strides"
    value {
      list {
        i: 1
        i: 1
        i: 1
        i: 1
      }
    }
  }
  attr {
    key: "use_cudnn_on_gpu"
    value {
      b: true
    }
  }
}
node {
  name: "Conv2_layer/Bias"
  op: "BiasAdd"
  input: "Conv2_layer/Conv"
  input: "Conv2_layer/B"
  attr {
    key: "T"
    value {
      type: DT_FLOAT
    }
  }
  attr {
    key: "data_format"
    value {
      s: "NHWC"
    }
  }
}
node {
  name: "Conv2_layer/Relu"
  op: "Relu"
  input: "Conv2_layer/Bias"
  attr {
    key: "T"
    value {
      type: DT_FLOAT
    }
  }
}
node {
  name: "Conv2_layer/Pool"
  op: "AvgPool"
  input: "Conv2_layer/Relu"
  attr {
    key: "T"
    value {
      type: DT_FLOAT
    }
  }
  attr {
    key: "data_format"
    value {
      s: "NHWC"
    }
  }
  attr {
    key: "ksize"
    value {
      list {
        i: 1
        i: 2
        i: 2
        i: 1
      }
    }
  }
  attr {
    key: "padding"
    value {
      s: "VALID"
    }
  }
  attr {
    key: "strides"
    value {
      list {
        i: 1
        i: 2
        i: 2
        i: 1
      }
    }
  }
}
node {
  name: "Flatten_layer/Const/Const"
  op: "Const"
  attr {
    key: "dtype"
    value {
      type: DT_INT32
    }
  }
  attr {
    key: "value"
    value {
      tensor {
        dtype: DT_INT32
        tensor_shape {
          dim {
            size: 2
          }
        }
        tensor_content: "\377\377\377\377@\002\000\000"
      }
    }
  }
}
node {
  name: "Flatten_layer/Reshape"
  op: "Reshape"
  input: "Conv2_layer/Pool"
  input: "Flatten_layer/Const/Const"
  attr {
    key: "T"
    value {
      type: DT_FLOAT
    }
  }
  attr {
    key: "Tshape"
    value {
      type: DT_INT32
    }
  }
}
node {
  name: "Dense1_layer/W"
  op: "VariableV2"
  attr {
    key: "container"
    value {
      s: ""
    }
  }
  attr {
    key: "dtype"
    value {
      type: DT_FLOAT
    }
  }
  attr {
    key: "shape"
    value {
      shape {
        dim {
          size: 576
        }
        dim {
          size: 120
        }
      }
    }
  }
  attr {
    key: "shared_name"
    value {
      s: ""
    }
  }
}
node {
  name: "Dense1_layer/Const/Const"
  op: "Const"
  attr {
    key: "dtype"
    value {
      type: DT_INT32
    }
  }
  attr {
    key: "value"
    value {
      tensor {
        dtype: DT_INT32
        tensor_shape {
          dim {
            size: 2
          }
        }
        tensor_content: "@\002\000\000x\000\000\000"
      }
    }
  }
}
node {
  name: "Dense1_layer/RandomNormal"
  op: "RandomStandardNormal"
  input: "Dense1_layer/Const/Const"
  attr {
    key: "T"
    value {
      type: DT_INT32
    }
  }
  attr {
    key: "dtype"
    value {
      type: DT_FLOAT
    }
  }
  attr {
    key: "seed"
    value {
      i: 0
    }
  }
  attr {
    key: "seed2"
    value {
      i: 0
    }
  }
}
node {
  name: "Dense1_layer/W_assign"
  op: "Assign"
  input: "Dense1_layer/W"
  input: "Dense1_layer/RandomNormal"
  attr {
    key: "T"
    value {
      type: DT_FLOAT
    }
  }
  attr {
    key: "use_locking"
    value {
      b: true
    }
  }
  attr {
    key: "validate_shape"
    value {
      b: true
    }
  }
}
node {
  name: "Dense1_layer/B"
  op: "VariableV2"
  attr {
    key: "container"
    value {
      s: ""
    }
  }
  attr {
    key: "dtype"
    value {
      type: DT_FLOAT
    }
  }
  attr {
    key: "shape"
    value {
      shape {
        dim {
          size: 120
        }
      }
    }
  }
  attr {
    key: "shared_name"
    value {
      s: ""
    }
  }
}
node {
  name: "Dense1_layer/Const_1/Const"
  op: "Const"
  attr {
    key: "dtype"
    value {
      type: DT_INT32
    }
  }
  attr {
    key: "value"
    value {
      tensor {
        dtype: DT_INT32
        tensor_shape {
          dim {
            size: 1
          }
        }
        int_val: 120
      }
    }
  }
}
node {
  name: "Dense1_layer/RandomNormal_1"
  op: "RandomStandardNormal"
  input: "Dense1_layer/Const_1/Const"
  attr {
    key: "T"
    value {
      type: DT_INT32
    }
  }
  attr {
    key: "dtype"
    value {
      type: DT_FLOAT
    }
  }
  attr {
    key: "seed"
    value {
      i: 0
    }
  }
  attr {
    key: "seed2"
    value {
      i: 0
    }
  }
}
node {
  name: "Dense1_layer/B_assign"
  op: "Assign"
  input: "Dense1_layer/B"
  input: "Dense1_layer/RandomNormal_1"
  attr {
    key: "T"
    value {
      type: DT_FLOAT
    }
  }
  attr {
    key: "use_locking"
    value {
      b: true
    }
  }
  attr {
    key: "validate_shape"
    value {
      b: true
    }
  }
}
node {
  name: "Dense1_layer/Dense_w"
  op: "MatMul"
  input: "Flatten_layer/Reshape"
  input: "Dense1_layer/W"
  attr {
    key: "T"
    value {
      type: DT_FLOAT
    }
  }
  attr {
    key: "transpose_a"
    value {
      b: false
    }
  }
  attr {
    key: "transpose_b"
    value {
      b: false
    }
  }
}
node {
  name: "Dense1_layer/Dense_b"
  op: "Add"
  input: "Dense1_layer/Dense_w"
  input: "Dense1_layer/B"
  attr {
    key: "T"
    value {
      type: DT_FLOAT
    }
  }
}
node {
  name: "Dense1_layer/Relu"
  op: "Relu"
  input: "Dense1_layer/Dense_b"
  attr {
    key: "T"
    value {
      type: DT_FLOAT
    }
  }
}
node {
  name: "Dense2_layer/W"
  op: "VariableV2"
  attr {
    key: "container"
    value {
      s: ""
    }
  }
  attr {
    key: "dtype"
    value {
      type: DT_FLOAT
    }
  }
  attr {
    key: "shape"
    value {
      shape {
        dim {
          size: 120
        }
        dim {
          size: 84
        }
      }
    }
  }
  attr {
    key: "shared_name"
    value {
      s: ""
    }
  }
}
node {
  name: "Dense2_layer/Const/Const"
  op: "Const"
  attr {
    key: "dtype"
    value {
      type: DT_INT32
    }
  }
  attr {
    key: "value"
    value {
      tensor {
        dtype: DT_INT32
        tensor_shape {
          dim {
            size: 2
          }
        }
        tensor_content: "x\000\000\000T\000\000\000"
      }
    }
  }
}
node {
  name: "Dense2_layer/RandomNormal"
  op: "RandomStandardNormal"
  input: "Dense2_layer/Const/Const"
  attr {
    key: "T"
    value {
      type: DT_INT32
    }
  }
  attr {
    key: "dtype"
    value {
      type: DT_FLOAT
    }
  }
  attr {
    key: "seed"
    value {
      i: 0
    }
  }
  attr {
    key: "seed2"
    value {
      i: 0
    }
  }
}
node {
  name: "Dense2_layer/W_assign"
  op: "Assign"
  input: "Dense2_layer/W"
  input: "Dense2_layer/RandomNormal"
  attr {
    key: "T"
    value {
      type: DT_FLOAT
    }
  }
  attr {
    key: "use_locking"
    value {
      b: true
    }
  }
  attr {
    key: "validate_shape"
    value {
      b: true
    }
  }
}
node {
  name: "Dense2_layer/B"
  op: "VariableV2"
  attr {
    key: "container"
    value {
      s: ""
    }
  }
  attr {
    key: "dtype"
    value {
      type: DT_FLOAT
    }
  }
  attr {
    key: "shape"
    value {
      shape {
        dim {
          size: 84
        }
      }
    }
  }
  attr {
    key: "shared_name"
    value {
      s: ""
    }
  }
}
node {
  name: "Dense2_layer/Const_1/Const"
  op: "Const"
  attr {
    key: "dtype"
    value {
      type: DT_INT32
    }
  }
  attr {
    key: "value"
    value {
      tensor {
        dtype: DT_INT32
        tensor_shape {
          dim {
            size: 1
          }
        }
        int_val: 84
      }
    }
  }
}
node {
  name: "Dense2_layer/RandomNormal_1"
  op: "RandomStandardNormal"
  input: "Dense2_layer/Const_1/Const"
  attr {
    key: "T"
    value {
      type: DT_INT32
    }
  }
  attr {
    key: "dtype"
    value {
      type: DT_FLOAT
    }
  }
  attr {
    key: "seed"
    value {
      i: 0
    }
  }
  attr {
    key: "seed2"
    value {
      i: 0
    }
  }
}
node {
  name: "Dense2_layer/B_assign"
  op: "Assign"
  input: "Dense2_layer/B"
  input: "Dense2_layer/RandomNormal_1"
  attr {
    key: "T"
    value {
      type: DT_FLOAT
    }
  }
  attr {
    key: "use_locking"
    value {
      b: true
    }
  }
  attr {
    key: "validate_shape"
    value {
      b: true
    }
  }
}
node {
  name: "Dense2_layer/Dense_w"
  op: "MatMul"
  input: "Dense1_layer/Relu"
  input: "Dense2_layer/W"
  attr {
    key: "T"
    value {
      type: DT_FLOAT
    }
  }
  attr {
    key: "transpose_a"
    value {
      b: false
    }
  }
  attr {
    key: "transpose_b"
    value {
      b: false
    }
  }
}
node {
  name: "Dense2_layer/Dense_b"
  op: "Add"
  input: "Dense2_layer/Dense_w"
  input: "Dense2_layer/B"
  attr {
    key: "T"
    value {
      type: DT_FLOAT
    }
  }
}
node {
  name: "Dense2_layer/Relu"
  op: "Relu"
  input: "Dense2_layer/Dense_b"
  attr {
    key: "T"
    value {
      type: DT_FLOAT
    }
  }
}
node {
  name: "Dense3_layer/W"
  op: "VariableV2"
  attr {
    key: "container"
    value {
      s: ""
    }
  }
  attr {
    key: "dtype"
    value {
      type: DT_FLOAT
    }
  }
  attr {
    key: "shape"
    value {
      shape {
        dim {
          size: 84
        }
        dim {
          size: 29
        }
      }
    }
  }
  attr {
    key: "shared_name"
    value {
      s: ""
    }
  }
}
node {
  name: "Dense3_layer/Const/Const"
  op: "Const"
  attr {
    key: "dtype"
    value {
      type: DT_INT32
    }
  }
  attr {
    key: "value"
    value {
      tensor {
        dtype: DT_INT32
        tensor_shape {
          dim {
            size: 2
          }
        }
        tensor_content: "T\000\000\000\035\000\000\000"
      }
    }
  }
}
node {
  name: "Dense3_layer/RandomNormal"
  op: "RandomStandardNormal"
  input: "Dense3_layer/Const/Const"
  attr {
    key: "T"
    value {
      type: DT_INT32
    }
  }
  attr {
    key: "dtype"
    value {
      type: DT_FLOAT
    }
  }
  attr {
    key: "seed"
    value {
      i: 0
    }
  }
  attr {
    key: "seed2"
    value {
      i: 0
    }
  }
}
node {
  name: "Dense3_layer/W_assign"
  op: "Assign"
  input: "Dense3_layer/W"
  input: "Dense3_layer/RandomNormal"
  attr {
    key: "T"
    value {
      type: DT_FLOAT
    }
  }
  attr {
    key: "use_locking"
    value {
      b: true
    }
  }
  attr {
    key: "validate_shape"
    value {
      b: true
    }
  }
}
node {
  name: "Dense3_layer/B"
  op: "VariableV2"
  attr {
    key: "container"
    value {
      s: ""
    }
  }
  attr {
    key: "dtype"
    value {
      type: DT_FLOAT
    }
  }
  attr {
    key: "shape"
    value {
      shape {
        dim {
          size: 29
        }
      }
    }
  }
  attr {
    key: "shared_name"
    value {
      s: ""
    }
  }
}
node {
  name: "Dense3_layer/Const_1/Const"
  op: "Const"
  attr {
    key: "dtype"
    value {
      type: DT_INT32
    }
  }
  attr {
    key: "value"
    value {
      tensor {
        dtype: DT_INT32
        tensor_shape {
          dim {
            size: 1
          }
        }
        int_val: 29
      }
    }
  }
}
node {
  name: "Dense3_layer/RandomNormal_1"
  op: "RandomStandardNormal"
  input: "Dense3_layer/Const_1/Const"
  attr {
    key: "T"
    value {
      type: DT_INT32
    }
  }
  attr {
    key: "dtype"
    value {
      type: DT_FLOAT
    }
  }
  attr {
    key: "seed"
    value {
      i: 0
    }
  }
  attr {
    key: "seed2"
    value {
      i: 0
    }
  }
}
node {
  name: "Dense3_layer/B_assign"
  op: "Assign"
  input: "Dense3_layer/B"
  input: "Dense3_layer/RandomNormal_1"
  attr {
    key: "T"
    value {
      type: DT_FLOAT
    }
  }
  attr {
    key: "use_locking"
    value {
      b: true
    }
  }
  attr {
    key: "validate_shape"
    value {
      b: true
    }
  }
}
node {
  name: "Dense3_layer/Dense_w"
  op: "MatMul"
  input: "Dense2_layer/Relu"
  input: "Dense3_layer/W"
  attr {
    key: "T"
    value {
      type: DT_FLOAT
    }
  }
  attr {
    key: "transpose_a"
    value {
      b: false
    }
  }
  attr {
    key: "transpose_b"
    value {
      b: false
    }
  }
}
node {
  name: "Dense3_layer/Dense_b"
  op: "Add"
  input: "Dense3_layer/Dense_w"
  input: "Dense3_layer/B"
  attr {
    key: "T"
    value {
      type: DT_FLOAT
    }
  }
}
node {
  name: "Softmax_layer/Softmax_layer"
  op: "Softmax"
  input: "Dense3_layer/Dense_b"
  attr {
    key: "T"
    value {
      type: DT_FLOAT
    }
  }
}
node {
  name: "Conv1_layer/L2Loss"
  op: "L2Loss"
  input: "Conv1_layer/W"
  attr {
    key: "T"
    value {
      type: DT_FLOAT
    }
  }
}
node {
  name: "Conv2_layer/L2Loss"
  op: "L2Loss"
  input: "Conv2_layer/W"
  attr {
    key: "T"
    value {
      type: DT_FLOAT
    }
  }
}
node {
  name: "Dense1_layer/L2Loss"
  op: "L2Loss"
  input: "Dense1_layer/W"
  attr {
    key: "T"
    value {
      type: DT_FLOAT
    }
  }
}
node {
  name: "Dense2_layer/L2Loss"
  op: "L2Loss"
  input: "Dense2_layer/W"
  attr {
    key: "T"
    value {
      type: DT_FLOAT
    }
  }
}
node {
  name: "Dense3_layer/L2Loss"
  op: "L2Loss"
  input: "Dense3_layer/W"
  attr {
    key: "T"
    value {
      type: DT_FLOAT
    }
  }
}
node {
  name: "AddN"
  op: "AddN"
  input: "Conv1_layer/L2Loss"
  input: "Conv2_layer/L2Loss"
  input: "Dense1_layer/L2Loss"
  input: "Dense2_layer/L2Loss"
  input: "Dense3_layer/L2Loss"
  attr {
    key: "N"
    value {
      i: 5
    }
  }
  attr {
    key: "T"
    value {
      type: DT_FLOAT
    }
  }
}
node {
  name: "Loss_scope/Subtract"
  op: "Sub"
  input: "Softmax_layer/Softmax_layer"
  input: "inputL"
  attr {
    key: "T"
    value {
      type: DT_FLOAT
    }
  }
}
node {
  name: "Loss_scope/Square"
  op: "Square"
  input: "Loss_scope/Subtract"
  attr {
    key: "T"
    value {
      type: DT_FLOAT
    }
  }
}
node {
  name: "Loss_scope/Const/Const"
  op: "Const"
  attr {
    key: "dtype"
    value {
      type: DT_INT32
    }
  }
  attr {
    key: "value"
    value {
      tensor {
        dtype: DT_INT32
        tensor_shape {
          dim {
            size: 2
          }
        }
        tensor_content: "\000\000\000\000\001\000\000\000"
      }
    }
  }
}
node {
  name: "Loss_scope/Mean"
  op: "Mean"
  input: "Loss_scope/Square"
  input: "Loss_scope/Const/Const"
  attr {
    key: "T"
    value {
      type: DT_FLOAT
    }
  }
  attr {
    key: "Tidx"
    value {
      type: DT_INT32
    }
  }
  attr {
    key: "keep_dims"
    value {
      b: false
    }
  }
}
node {
  name: "Loss_scope/Const_1/Const"
  op: "Const"
  attr {
    key: "dtype"
    value {
      type: DT_DOUBLE
    }
  }
  attr {
    key: "value"
    value {
      tensor {
        dtype: DT_DOUBLE
        tensor_shape {
        }
        double_val: 0.0001
      }
    }
  }
}
node {
  name: "Loss_scope/Cast"
  op: "Cast"
  input: "Loss_scope/Const_1/Const"
  attr {
    key: "DstT"
    value {
      type: DT_FLOAT
    }
  }
  attr {
    key: "SrcT"
    value {
      type: DT_DOUBLE
    }
  }
  attr {
    key: "Truncate"
    value {
      b: false
    }
  }
}
node {
  name: "Loss_scope/Multiply"
  op: "Mul"
  input: "Loss_scope/Cast"
  input: "AddN"
  attr {
    key: "T"
    value {
      type: DT_FLOAT
    }
  }
}
node {
  name: "Loss_scope/Loss"
  op: "Add"
  input: "Loss_scope/Mean"
  input: "Loss_scope/Multiply"
  attr {
    key: "T"
    value {
      type: DT_FLOAT
    }
  }
}
node {
  name: "OnesLike"
  op: "OnesLike"
  input: "Loss_scope/Loss"
  attr {
    key: "T"
    value {
      type: DT_FLOAT
    }
  }
}
node {
  name: "Identity"
  op: "Identity"
  input: "OnesLike"
  attr {
    key: "T"
    value {
      type: DT_FLOAT
    }
  }
}
node {
  name: "Identity_1"
  op: "Identity"
  input: "OnesLike"
  attr {
    key: "T"
    value {
      type: DT_FLOAT
    }
  }
}
node {
  name: "Shape"
  op: "Shape"
  input: "Loss_scope/Mean"
  attr {
    key: "T"
    value {
      type: DT_FLOAT
    }
  }
  attr {
    key: "out_type"
    value {
      type: DT_INT32
    }
  }
}
node {
  name: "Shape_1"
  op: "Shape"
  input: "Loss_scope/Multiply"
  attr {
    key: "T"
    value {
      type: DT_FLOAT
    }
  }
  attr {
    key: "out_type"
    value {
      type: DT_INT32
    }
  }
}
node {
  name: "BroadcastGradientArgs"
  op: "BroadcastGradientArgs"
  input: "Shape"
  input: "Shape_1"
  attr {
    key: "T"
    value {
      type: DT_INT32
    }
  }
}
node {
  name: "Sum"
  op: "Sum"
  input: "Identity"
  input: "BroadcastGradientArgs"
  attr {
    key: "T"
    value {
      type: DT_FLOAT
    }
  }
  attr {
    key: "Tidx"
    value {
      type: DT_INT32
    }
  }
  attr {
    key: "keep_dims"
    value {
      b: false
    }
  }
}
node {
  name: "Reshape"
  op: "Reshape"
  input: "Sum"
  input: "Shape"
  attr {
    key: "T"
    value {
      type: DT_FLOAT
    }
  }
  attr {
    key: "Tshape"
    value {
      type: DT_INT32
    }
  }
}
node {
  name: "Sum_1"
  op: "Sum"
  input: "Identity_1"
  input: "BroadcastGradientArgs:1"
  attr {
    key: "T"
    value {
      type: DT_FLOAT
    }
  }
  attr {
    key: "Tidx"
    value {
      type: DT_INT32
    }
  }
  attr {
    key: "keep_dims"
    value {
      b: false
    }
  }
}
node {
  name: "Reshape_1"
  op: "Reshape"
  input: "Sum_1"
  input: "Shape_1"
  attr {
    key: "T"
    value {
      type: DT_FLOAT
    }
  }
  attr {
    key: "Tshape"
    value {
      type: DT_INT32
    }
  }
}
node {
  name: "Shape_2"
  op: "Shape"
  input: "Loss_scope/Square"
  attr {
    key: "T"
    value {
      type: DT_FLOAT
    }
  }
  attr {
    key: "out_type"
    value {
      type: DT_INT32
    }
  }
}
node {
  name: "Const"
  op: "Const"
  attr {
    key: "dtype"
    value {
      type: DT_INT32
    }
  }
  attr {
    key: "value"
    value {
      tensor {
        dtype: DT_INT32
        tensor_shape {
        }
        int_val: 0
      }
    }
  }
}
node {
  name: "Const_1"
  op: "Const"
  attr {
    key: "dtype"
    value {
      type: DT_INT32
    }
  }
  attr {
    key: "value"
    value {
      tensor {
        dtype: DT_INT32
        tensor_shape {
        }
        int_val: 1
      }
    }
  }
}
node {
  name: "Size"
  op: "Size"
  input: "Shape_2"
  attr {
    key: "T"
    value {
      type: DT_INT32
    }
  }
  attr {
    key: "out_type"
    value {
      type: DT_INT32
    }
  }
}
node {
  name: "Add"
  op: "Add"
  input: "Loss_scope/Const/Const"
  input: "Size"
  attr {
    key: "T"
    value {
      type: DT_INT32
    }
  }
}
node {
  name: "Mod"
  op: "Mod"
  input: "Add"
  input: "Size"
  attr {
    key: "T"
    value {
      type: DT_INT32
    }
  }
}
node {
  name: "Range"
  op: "Range"
  input: "Const"
  input: "Size"
  input: "Const_1"
  attr {
    key: "Tidx"
    value {
      type: DT_INT32
    }
  }
}
node {
  name: "OnesLike_1"
  op: "OnesLike"
  input: "Mod"
  attr {
    key: "T"
    value {
      type: DT_INT32
    }
  }
}
node {
  name: "DynamicStitch"
  op: "DynamicStitch"
  input: "Range"
  input: "Mod"
  input: "Shape_2"
  input: "OnesLike_1"
  attr {
    key: "N"
    value {
      i: 2
    }
  }
  attr {
    key: "T"
    value {
      type: DT_INT32
    }
  }
}
node {
  name: "Const_2"
  op: "Const"
  attr {
    key: "dtype"
    value {
      type: DT_INT32
    }
  }
  attr {
    key: "value"
    value {
      tensor {
        dtype: DT_INT32
        tensor_shape {
        }
        int_val: 1
      }
    }
  }
}
node {
  name: "Maximum"
  op: "Maximum"
  input: "DynamicStitch"
  input: "Const_2"
  attr {
    key: "T"
    value {
      type: DT_INT32
    }
  }
}
node {
  name: "Div"
  op: "Div"
  input: "Shape_2"
  input: "Maximum"
  attr {
    key: "T"
    value {
      type: DT_INT32
    }
  }
}
node {
  name: "Reshape_2"
  op: "Reshape"
  input: "Reshape"
  input: "DynamicStitch"
  attr {
    key: "T"
    value {
      type: DT_FLOAT
    }
  }
  attr {
    key: "Tshape"
    value {
      type: DT_INT32
    }
  }
}
node {
  name: "Tile"
  op: "Tile"
  input: "Reshape_2"
  input: "Div"
  attr {
    key: "T"
    value {
      type: DT_FLOAT
    }
  }
  attr {
    key: "Tmultiples"
    value {
      type: DT_INT32
    }
  }
}
node {
  name: "Shape_3"
  op: "Shape"
  input: "Loss_scope/Square"
  attr {
    key: "T"
    value {
      type: DT_FLOAT
    }
  }
  attr {
    key: "out_type"
    value {
      type: DT_INT32
    }
  }
}
node {
  name: "Shape_4"
  op: "Shape"
  input: "Loss_scope/Mean"
  attr {
    key: "T"
    value {
      type: DT_FLOAT
    }
  }
  attr {
    key: "out_type"
    value {
      type: DT_INT32
    }
  }
}
node {
  name: "Const_3"
  op: "Const"
  attr {
    key: "dtype"
    value {
      type: DT_INT32
    }
  }
  attr {
    key: "value"
    value {
      tensor {
        dtype: DT_INT32
        tensor_shape {
        }
        int_val: 0
      }
    }
  }
}
node {
  name: "Prod"
  op: "Prod"
  input: "Shape_4"
  input: "Const_3"
  attr {
    key: "T"
    value {
      type: DT_INT32
    }
  }
  attr {
    key: "Tidx"
    value {
      type: DT_INT32
    }
  }
  attr {
    key: "keep_dims"
    value {
      b: false
    }
  }
}
node {
  name: "Prod_1"
  op: "Prod"
  input: "Shape_3"
  input: "Const_3"
  attr {
    key: "T"
    value {
      type: DT_INT32
    }
  }
  attr {
    key: "Tidx"
    value {
      type: DT_INT32
    }
  }
  attr {
    key: "keep_dims"
    value {
      b: false
    }
  }
}
node {
  name: "Const_4"
  op: "Const"
  attr {
    key: "dtype"
    value {
      type: DT_INT32
    }
  }
  attr {
    key: "value"
    value {
      tensor {
        dtype: DT_INT32
        tensor_shape {
        }
        int_val: 1
      }
    }
  }
}
node {
  name: "Maximum_1"
  op: "Maximum"
  input: "Prod"
  input: "Const_4"
  attr {
    key: "T"
    value {
      type: DT_INT32
    }
  }
}
node {
  name: "Div_1"
  op: "Div"
  input: "Prod_1"
  input: "Maximum_1"
  attr {
    key: "T"
    value {
      type: DT_INT32
    }
  }
}
node {
  name: "Cast"
  op: "Cast"
  input: "Div_1"
  attr {
    key: "DstT"
    value {
      type: DT_FLOAT
    }
  }
  attr {
    key: "SrcT"
    value {
      type: DT_INT32
    }
  }
  attr {
    key: "Truncate"
    value {
      b: false
    }
  }
}
node {
  name: "Div_2"
  op: "Div"
  input: "Tile"
  input: "Cast"
  attr {
    key: "T"
    value {
      type: DT_FLOAT
    }
  }
}
node {
  name: "Multiply"
  op: "Mul"
  input: "Reshape_1"
  input: "AddN"
  attr {
    key: "T"
    value {
      type: DT_FLOAT
    }
  }
}
node {
  name: "Multiply_1"
  op: "Mul"
  input: "Reshape_1"
  input: "Loss_scope/Cast"
  attr {
    key: "T"
    value {
      type: DT_FLOAT
    }
  }
}
node {
  name: "Shape_5"
  op: "Shape"
  input: "Loss_scope/Cast"
  attr {
    key: "T"
    value {
      type: DT_FLOAT
    }
  }
  attr {
    key: "out_type"
    value {
      type: DT_INT32
    }
  }
}
node {
  name: "Shape_6"
  op: "Shape"
  input: "AddN"
  attr {
    key: "T"
    value {
      type: DT_FLOAT
    }
  }
  attr {
    key: "out_type"
    value {
      type: DT_INT32
    }
  }
}
node {
  name: "BroadcastGradientArgs_1"
  op: "BroadcastGradientArgs"
  input: "Shape_5"
  input: "Shape_6"
  attr {
    key: "T"
    value {
      type: DT_INT32
    }
  }
}
node {
  name: "Sum_2"
  op: "Sum"
  input: "Multiply"
  input: "BroadcastGradientArgs_1"
  attr {
    key: "T"
    value {
      type: DT_FLOAT
    }
  }
  attr {
    key: "Tidx"
    value {
      type: DT_INT32
    }
  }
  attr {
    key: "keep_dims"
    value {
      b: false
    }
  }
}
node {
  name: "Reshape_3"
  op: "Reshape"
  input: "Sum_2"
  input: "Shape_5"
  attr {
    key: "T"
    value {
      type: DT_FLOAT
    }
  }
  attr {
    key: "Tshape"
    value {
      type: DT_INT32
    }
  }
}
node {
  name: "Sum_3"
  op: "Sum"
  input: "Multiply_1"
  input: "BroadcastGradientArgs_1:1"
  attr {
    key: "T"
    value {
      type: DT_FLOAT
    }
  }
  attr {
    key: "Tidx"
    value {
      type: DT_INT32
    }
  }
  attr {
    key: "keep_dims"
    value {
      b: false
    }
  }
}
node {
  name: "Reshape_4"
  op: "Reshape"
  input: "Sum_3"
  input: "Shape_6"
  attr {
    key: "T"
    value {
      type: DT_FLOAT
    }
  }
  attr {
    key: "Tshape"
    value {
      type: DT_INT32
    }
  }
}
node {
  name: "Const_5"
  op: "Const"
  attr {
    key: "dtype"
    value {
      type: DT_INT32
    }
  }
  attr {
    key: "value"
    value {
      tensor {
        dtype: DT_INT32
        tensor_shape {
        }
        int_val: 2
      }
    }
  }
}
node {
  name: "Cast_1"
  op: "Cast"
  input: "Const_5"
  attr {
    key: "DstT"
    value {
      type: DT_FLOAT
    }
  }
  attr {
    key: "SrcT"
    value {
      type: DT_INT32
    }
  }
  attr {
    key: "Truncate"
    value {
      b: false
    }
  }
}
node {
  name: "Multiply_2"
  op: "Mul"
  input: "Cast_1"
  input: "Loss_scope/Subtract"
  attr {
    key: "T"
    value {
      type: DT_FLOAT
    }
  }
}
node {
  name: "Multiply_3"
  op: "Mul"
  input: "Div_2"
  input: "Multiply_2"
  attr {
    key: "T"
    value {
      type: DT_FLOAT
    }
  }
}
node {
  name: "Identity_2"
  op: "Identity"
  input: "Reshape_4"
  attr {
    key: "T"
    value {
      type: DT_FLOAT
    }
  }
}
node {
  name: "Identity_3"
  op: "Identity"
  input: "Multiply_3"
  attr {
    key: "T"
    value {
      type: DT_FLOAT
    }
  }
}
node {
  name: "Negate"
  op: "Neg"
  input: "Multiply_3"
  attr {
    key: "T"
    value {
      type: DT_FLOAT
    }
  }
}
node {
  name: "Shape_7"
  op: "Shape"
  input: "Softmax_layer/Softmax_layer"
  attr {
    key: "T"
    value {
      type: DT_FLOAT
    }
  }
  attr {
    key: "out_type"
    value {
      type: DT_INT32
    }
  }
}
node {
  name: "Shape_8"
  op: "Shape"
  input: "inputL"
  attr {
    key: "T"
    value {
      type: DT_FLOAT
    }
  }
  attr {
    key: "out_type"
    value {
      type: DT_INT32
    }
  }
}
node {
  name: "BroadcastGradientArgs_2"
  op: "BroadcastGradientArgs"
  input: "Shape_7"
  input: "Shape_8"
  attr {
    key: "T"
    value {
      type: DT_INT32
    }
  }
}
node {
  name: "Sum_4"
  op: "Sum"
  input: "Identity_3"
  input: "BroadcastGradientArgs_2"
  attr {
    key: "T"
    value {
      type: DT_FLOAT
    }
  }
  attr {
    key: "Tidx"
    value {
      type: DT_INT32
    }
  }
  attr {
    key: "keep_dims"
    value {
      b: false
    }
  }
}
node {
  name: "Reshape_5"
  op: "Reshape"
  input: "Sum_4"
  input: "Shape_7"
  attr {
    key: "T"
    value {
      type: DT_FLOAT
    }
  }
  attr {
    key: "Tshape"
    value {
      type: DT_INT32
    }
  }
}
node {
  name: "Sum_5"
  op: "Sum"
  input: "Negate"
  input: "BroadcastGradientArgs_2:1"
  attr {
    key: "T"
    value {
      type: DT_FLOAT
    }
  }
  attr {
    key: "Tidx"
    value {
      type: DT_INT32
    }
  }
  attr {
    key: "keep_dims"
    value {
      b: false
    }
  }
}
node {
  name: "Reshape_6"
  op: "Reshape"
  input: "Sum_5"
  input: "Shape_8"
  attr {
    key: "T"
    value {
      type: DT_FLOAT
    }
  }
  attr {
    key: "Tshape"
    value {
      type: DT_INT32
    }
  }
}
node {
  name: "Multiply_4"
  op: "Mul"
  input: "Conv1_layer/W"
  input: "Identity_2"
  attr {
    key: "T"
    value {
      type: DT_FLOAT
    }
  }
}
node {
  name: "Multiply_5"
  op: "Mul"
  input: "Conv2_layer/W"
  input: "Identity_2"
  attr {
    key: "T"
    value {
      type: DT_FLOAT
    }
  }
}
node {
  name: "Multiply_6"
  op: "Mul"
  input: "Dense1_layer/W"
  input: "Identity_2"
  attr {
    key: "T"
    value {
      type: DT_FLOAT
    }
  }
}
node {
  name: "Multiply_7"
  op: "Mul"
  input: "Dense2_layer/W"
  input: "Identity_2"
  attr {
    key: "T"
    value {
      type: DT_FLOAT
    }
  }
}
node {
  name: "Multiply_8"
  op: "Mul"
  input: "Dense3_layer/W"
  input: "Identity_2"
  attr {
    key: "T"
    value {
      type: DT_FLOAT
    }
  }
}
node {
  name: "Multiply_9"
  op: "Mul"
  input: "Reshape_5"
  input: "Softmax_layer/Softmax_layer"
  attr {
    key: "T"
    value {
      type: DT_FLOAT
    }
  }
}
node {
  name: "Const_6/Const"
  op: "Const"
  attr {
    key: "dtype"
    value {
      type: DT_INT32
    }
  }
  attr {
    key: "value"
    value {
      tensor {
        dtype: DT_INT32
        tensor_shape {
          dim {
            size: 1
          }
        }
        int_val: 1
      }
    }
  }
}
node {
  name: "Sum_6"
  op: "Sum"
  input: "Multiply_9"
  input: "Const_6/Const"
  attr {
    key: "T"
    value {
      type: DT_FLOAT
    }
  }
  attr {
    key: "Tidx"
    value {
      type: DT_INT32
    }
  }
  attr {
    key: "keep_dims"
    value {
      b: false
    }
  }
}
node {
  name: "Const_7/Const"
  op: "Const"
  attr {
    key: "dtype"
    value {
      type: DT_INT32
    }
  }
  attr {
    key: "value"
    value {
      tensor {
        dtype: DT_INT32
        tensor_shape {
          dim {
            size: 2
          }
        }
        tensor_content: "\377\377\377\377\001\000\000\000"
      }
    }
  }
}
node {
  name: "Reshape_7"
  op: "Reshape"
  input: "Sum_6"
  input: "Const_7/Const"
  attr {
    key: "T"
    value {
      type: DT_FLOAT
    }
  }
  attr {
    key: "Tshape"
    value {
      type: DT_INT32
    }
  }
}
node {
  name: "Subtract"
  op: "Sub"
  input: "Reshape_5"
  input: "Reshape_7"
  attr {
    key: "T"
    value {
      type: DT_FLOAT
    }
  }
}
node {
  name: "Multiply_10"
  op: "Mul"
  input: "Subtract"
  input: "Softmax_layer/Softmax_layer"
  attr {
    key: "T"
    value {
      type: DT_FLOAT
    }
  }
}
node {
  name: "Identity_4"
  op: "Identity"
  input: "Multiply_10"
  attr {
    key: "T"
    value {
      type: DT_FLOAT
    }
  }
}
node {
  name: "Identity_5"
  op: "Identity"
  input: "Multiply_10"
  attr {
    key: "T"
    value {
      type: DT_FLOAT
    }
  }
}
node {
  name: "Shape_9"
  op: "Shape"
  input: "Dense3_layer/Dense_w"
  attr {
    key: "T"
    value {
      type: DT_FLOAT
    }
  }
  attr {
    key: "out_type"
    value {
      type: DT_INT32
    }
  }
}
node {
  name: "Shape_10"
  op: "Shape"
  input: "Dense3_layer/B"
  attr {
    key: "T"
    value {
      type: DT_FLOAT
    }
  }
  attr {
    key: "out_type"
    value {
      type: DT_INT32
    }
  }
}
node {
  name: "BroadcastGradientArgs_3"
  op: "BroadcastGradientArgs"
  input: "Shape_9"
  input: "Shape_10"
  attr {
    key: "T"
    value {
      type: DT_INT32
    }
  }
}
node {
  name: "Sum_7"
  op: "Sum"
  input: "Identity_4"
  input: "BroadcastGradientArgs_3"
  attr {
    key: "T"
    value {
      type: DT_FLOAT
    }
  }
  attr {
    key: "Tidx"
    value {
      type: DT_INT32
    }
  }
  attr {
    key: "keep_dims"
    value {
      b: false
    }
  }
}
node {
  name: "Reshape_8"
  op: "Reshape"
  input: "Sum_7"
  input: "Shape_9"
  attr {
    key: "T"
    value {
      type: DT_FLOAT
    }
  }
  attr {
    key: "Tshape"
    value {
      type: DT_INT32
    }
  }
}
node {
  name: "Sum_8"
  op: "Sum"
  input: "Identity_5"
  input: "BroadcastGradientArgs_3:1"
  attr {
    key: "T"
    value {
      type: DT_FLOAT
    }
  }
  attr {
    key: "Tidx"
    value {
      type: DT_INT32
    }
  }
  attr {
    key: "keep_dims"
    value {
      b: false
    }
  }
}
node {
  name: "Reshape_9"
  op: "Reshape"
  input: "Sum_8"
  input: "Shape_10"
  attr {
    key: "T"
    value {
      type: DT_FLOAT
    }
  }
  attr {
    key: "Tshape"
    value {
      type: DT_INT32
    }
  }
}
node {
  name: "MatMul"
  op: "MatMul"
  input: "Reshape_8"
  input: "Dense3_layer/W"
  attr {
    key: "T"
    value {
      type: DT_FLOAT
    }
  }
  attr {
    key: "transpose_a"
    value {
      b: false
    }
  }
  attr {
    key: "transpose_b"
    value {
      b: true
    }
  }
}
node {
  name: "MatMul_1"
  op: "MatMul"
  input: "Dense2_layer/Relu"
  input: "Reshape_8"
  attr {
    key: "T"
    value {
      type: DT_FLOAT
    }
  }
  attr {
    key: "transpose_a"
    value {
      b: true
    }
  }
  attr {
    key: "transpose_b"
    value {
      b: false
    }
  }
}
node {
  name: "ReluGrad"
  op: "ReluGrad"
  input: "MatMul"
  input: "Dense2_layer/Dense_b"
  attr {
    key: "T"
    value {
      type: DT_FLOAT
    }
  }
}
node {
  name: "AddN_1"
  op: "AddN"
  input: "Multiply_8"
  input: "MatMul_1"
  attr {
    key: "N"
    value {
      i: 2
    }
  }
  attr {
    key: "T"
    value {
      type: DT_FLOAT
    }
  }
}
node {
  name: "Identity_6"
  op: "Identity"
  input: "ReluGrad"
  attr {
    key: "T"
    value {
      type: DT_FLOAT
    }
  }
}
node {
  name: "Identity_7"
  op: "Identity"
  input: "ReluGrad"
  attr {
    key: "T"
    value {
      type: DT_FLOAT
    }
  }
}
node {
  name: "Shape_11"
  op: "Shape"
  input: "Dense2_layer/Dense_w"
  attr {
    key: "T"
    value {
      type: DT_FLOAT
    }
  }
  attr {
    key: "out_type"
    value {
      type: DT_INT32
    }
  }
}
node {
  name: "Shape_12"
  op: "Shape"
  input: "Dense2_layer/B"
  attr {
    key: "T"
    value {
      type: DT_FLOAT
    }
  }
  attr {
    key: "out_type"
    value {
      type: DT_INT32
    }
  }
}
node {
  name: "BroadcastGradientArgs_4"
  op: "BroadcastGradientArgs"
  input: "Shape_11"
  input: "Shape_12"
  attr {
    key: "T"
    value {
      type: DT_INT32
    }
  }
}
node {
  name: "Sum_9"
  op: "Sum"
  input: "Identity_6"
  input: "BroadcastGradientArgs_4"
  attr {
    key: "T"
    value {
      type: DT_FLOAT
    }
  }
  attr {
    key: "Tidx"
    value {
      type: DT_INT32
    }
  }
  attr {
    key: "keep_dims"
    value {
      b: false
    }
  }
}
node {
  name: "Reshape_10"
  op: "Reshape"
  input: "Sum_9"
  input: "Shape_11"
  attr {
    key: "T"
    value {
      type: DT_FLOAT
    }
  }
  attr {
    key: "Tshape"
    value {
      type: DT_INT32
    }
  }
}
node {
  name: "Sum_10"
  op: "Sum"
  input: "Identity_7"
  input: "BroadcastGradientArgs_4:1"
  attr {
    key: "T"
    value {
      type: DT_FLOAT
    }
  }
  attr {
    key: "Tidx"
    value {
      type: DT_INT32
    }
  }
  attr {
    key: "keep_dims"
    value {
      b: false
    }
  }
}
node {
  name: "Reshape_11"
  op: "Reshape"
  input: "Sum_10"
  input: "Shape_12"
  attr {
    key: "T"
    value {
      type: DT_FLOAT
    }
  }
  attr {
    key: "Tshape"
    value {
      type: DT_INT32
    }
  }
}
node {
  name: "MatMul_2"
  op: "MatMul"
  input: "Reshape_10"
  input: "Dense2_layer/W"
  attr {
    key: "T"
    value {
      type: DT_FLOAT
    }
  }
  attr {
    key: "transpose_a"
    value {
      b: false
    }
  }
  attr {
    key: "transpose_b"
    value {
      b: true
    }
  }
}
node {
  name: "MatMul_3"
  op: "MatMul"
  input: "Dense1_layer/Relu"
  input: "Reshape_10"
  attr {
    key: "T"
    value {
      type: DT_FLOAT
    }
  }
  attr {
    key: "transpose_a"
    value {
      b: true
    }
  }
  attr {
    key: "transpose_b"
    value {
      b: false
    }
  }
}
node {
  name: "ReluGrad_1"
  op: "ReluGrad"
  input: "MatMul_2"
  input: "Dense1_layer/Dense_b"
  attr {
    key: "T"
    value {
      type: DT_FLOAT
    }
  }
}
node {
  name: "AddN_2"
  op: "AddN"
  input: "Multiply_7"
  input: "MatMul_3"
  attr {
    key: "N"
    value {
      i: 2
    }
  }
  attr {
    key: "T"
    value {
      type: DT_FLOAT
    }
  }
}
node {
  name: "Identity_8"
  op: "Identity"
  input: "ReluGrad_1"
  attr {
    key: "T"
    value {
      type: DT_FLOAT
    }
  }
}
node {
  name: "Identity_9"
  op: "Identity"
  input: "ReluGrad_1"
  attr {
    key: "T"
    value {
      type: DT_FLOAT
    }
  }
}
node {
  name: "Shape_13"
  op: "Shape"
  input: "Dense1_layer/Dense_w"
  attr {
    key: "T"
    value {
      type: DT_FLOAT
    }
  }
  attr {
    key: "out_type"
    value {
      type: DT_INT32
    }
  }
}
node {
  name: "Shape_14"
  op: "Shape"
  input: "Dense1_layer/B"
  attr {
    key: "T"
    value {
      type: DT_FLOAT
    }
  }
  attr {
    key: "out_type"
    value {
      type: DT_INT32
    }
  }
}
node {
  name: "BroadcastGradientArgs_5"
  op: "BroadcastGradientArgs"
  input: "Shape_13"
  input: "Shape_14"
  attr {
    key: "T"
    value {
      type: DT_INT32
    }
  }
}
node {
  name: "Sum_11"
  op: "Sum"
  input: "Identity_8"
  input: "BroadcastGradientArgs_5"
  attr {
    key: "T"
    value {
      type: DT_FLOAT
    }
  }
  attr {
    key: "Tidx"
    value {
      type: DT_INT32
    }
  }
  attr {
    key: "keep_dims"
    value {
      b: false
    }
  }
}
node {
  name: "Reshape_12"
  op: "Reshape"
  input: "Sum_11"
  input: "Shape_13"
  attr {
    key: "T"
    value {
      type: DT_FLOAT
    }
  }
  attr {
    key: "Tshape"
    value {
      type: DT_INT32
    }
  }
}
node {
  name: "Sum_12"
  op: "Sum"
  input: "Identity_9"
  input: "BroadcastGradientArgs_5:1"
  attr {
    key: "T"
    value {
      type: DT_FLOAT
    }
  }
  attr {
    key: "Tidx"
    value {
      type: DT_INT32
    }
  }
  attr {
    key: "keep_dims"
    value {
      b: false
    }
  }
}
node {
  name: "Reshape_13"
  op: "Reshape"
  input: "Sum_12"
  input: "Shape_14"
  attr {
    key: "T"
    value {
      type: DT_FLOAT
    }
  }
  attr {
    key: "Tshape"
    value {
      type: DT_INT32
    }
  }
}
node {
  name: "MatMul_4"
  op: "MatMul"
  input: "Reshape_12"
  input: "Dense1_layer/W"
  attr {
    key: "T"
    value {
      type: DT_FLOAT
    }
  }
  attr {
    key: "transpose_a"
    value {
      b: false
    }
  }
  attr {
    key: "transpose_b"
    value {
      b: true
    }
  }
}
node {
  name: "MatMul_5"
  op: "MatMul"
  input: "Flatten_layer/Reshape"
  input: "Reshape_12"
  attr {
    key: "T"
    value {
      type: DT_FLOAT
    }
  }
  attr {
    key: "transpose_a"
    value {
      b: true
    }
  }
  attr {
    key: "transpose_b"
    value {
      b: false
    }
  }
}
node {
  name: "Shape_15"
  op: "Shape"
  input: "Conv2_layer/Pool"
  attr {
    key: "T"
    value {
      type: DT_FLOAT
    }
  }
  attr {
    key: "out_type"
    value {
      type: DT_INT32
    }
  }
}
node {
  name: "Reshape_14"
  op: "Reshape"
  input: "MatMul_4"
  input: "Shape_15"
  attr {
    key: "T"
    value {
      type: DT_FLOAT
    }
  }
  attr {
    key: "Tshape"
    value {
      type: DT_INT32
    }
  }
}
node {
  name: "AddN_3"
  op: "AddN"
  input: "Multiply_6"
  input: "MatMul_5"
  attr {
    key: "N"
    value {
      i: 2
    }
  }
  attr {
    key: "T"
    value {
      type: DT_FLOAT
    }
  }
}
node {
  name: "Shape_16"
  op: "Shape"
  input: "Conv2_layer/Relu"
  attr {
    key: "T"
    value {
      type: DT_FLOAT
    }
  }
  attr {
    key: "out_type"
    value {
      type: DT_INT32
    }
  }
}
node {
  name: "AvgPoolGrad"
  op: "AvgPoolGrad"
  input: "Shape_16"
  input: "Reshape_14"
  attr {
    key: "T"
    value {
      type: DT_FLOAT
    }
  }
  attr {
    key: "data_format"
    value {
      s: "NHWC"
    }
  }
  attr {
    key: "ksize"
    value {
      list {
        i: 1
        i: 2
        i: 2
        i: 1
      }
    }
  }
  attr {
    key: "padding"
    value {
      s: "VALID"
    }
  }
  attr {
    key: "strides"
    value {
      list {
        i: 1
        i: 2
        i: 2
        i: 1
      }
    }
  }
}
node {
  name: "ReluGrad_2"
  op: "ReluGrad"
  input: "AvgPoolGrad"
  input: "Conv2_layer/Bias"
  attr {
    key: "T"
    value {
      type: DT_FLOAT
    }
  }
}
node {
  name: "BiasAddGrad"
  op: "BiasAddGrad"
  input: "ReluGrad_2"
  attr {
    key: "T"
    value {
      type: DT_FLOAT
    }
  }
  attr {
    key: "data_format"
    value {
      s: "NHWC"
    }
  }
}
node {
  name: "Identity_10"
  op: "Identity"
  input: "ReluGrad_2"
  attr {
    key: "T"
    value {
      type: DT_FLOAT
    }
  }
}
node {
  name: "Shape_17"
  op: "Shape"
  input: "Conv1_layer/Pool"
  attr {
    key: "T"
    value {
      type: DT_FLOAT
    }
  }
  attr {
    key: "out_type"
    value {
      type: DT_INT32
    }
  }
}
node {
  name: "Conv2DBackpropInput"
  op: "Conv2DBackpropInput"
  input: "Shape_17"
  input: "Conv2_layer/W"
  input: "Identity_10"
  attr {
    key: "T"
    value {
      type: DT_FLOAT
    }
  }
  attr {
    key: "data_format"
    value {
      s: "NHWC"
    }
  }
  attr {
    key: "dilations"
    value {
      list {
        i: 1
        i: 1
        i: 1
        i: 1
      }
    }
  }
  attr {
    key: "explicit_paddings"
    value {
      list {
      }
    }
  }
  attr {
    key: "padding"
    value {
      s: "VALID"
    }
  }
  attr {
    key: "strides"
    value {
      list {
        i: 1
        i: 1
        i: 1
        i: 1
      }
    }
  }
  attr {
    key: "use_cudnn_on_gpu"
    value {
      b: true
    }
  }
}
node {
  name: "Shape_18"
  op: "Shape"
  input: "Conv2_layer/W"
  attr {
    key: "T"
    value {
      type: DT_FLOAT
    }
  }
  attr {
    key: "out_type"
    value {
      type: DT_INT32
    }
  }
}
node {
  name: "Conv2DBackpropFilter"
  op: "Conv2DBackpropFilter"
  input: "Conv1_layer/Pool"
  input: "Shape_18"
  input: "Identity_10"
  attr {
    key: "T"
    value {
      type: DT_FLOAT
    }
  }
  attr {
    key: "data_format"
    value {
      s: "NHWC"
    }
  }
  attr {
    key: "dilations"
    value {
      list {
        i: 1
        i: 1
        i: 1
        i: 1
      }
    }
  }
  attr {
    key: "explicit_paddings"
    value {
      list {
      }
    }
  }
  attr {
    key: "padding"
    value {
      s: "VALID"
    }
  }
  attr {
    key: "strides"
    value {
      list {
        i: 1
        i: 1
        i: 1
        i: 1
      }
    }
  }
  attr {
    key: "use_cudnn_on_gpu"
    value {
      b: true
    }
  }
}
node {
  name: "Shape_19"
  op: "Shape"
  input: "Conv1_layer/Relu"
  attr {
    key: "T"
    value {
      type: DT_FLOAT
    }
  }
  attr {
    key: "out_type"
    value {
      type: DT_INT32
    }
  }
}
node {
  name: "AvgPoolGrad_1"
  op: "AvgPoolGrad"
  input: "Shape_19"
  input: "Conv2DBackpropInput"
  attr {
    key: "T"
    value {
      type: DT_FLOAT
    }
  }
  attr {
    key: "data_format"
    value {
      s: "NHWC"
    }
  }
  attr {
    key: "ksize"
    value {
      list {
        i: 1
        i: 2
        i: 2
        i: 1
      }
    }
  }
  attr {
    key: "padding"
    value {
      s: "VALID"
    }
  }
  attr {
    key: "strides"
    value {
      list {
        i: 1
        i: 2
        i: 2
        i: 1
      }
    }
  }
}
node {
  name: "AddN_4"
  op: "AddN"
  input: "Multiply_5"
  input: "Conv2DBackpropFilter"
  attr {
    key: "N"
    value {
      i: 2
    }
  }
  attr {
    key: "T"
    value {
      type: DT_FLOAT
    }
  }
}
node {
  name: "ReluGrad_3"
  op: "ReluGrad"
  input: "AvgPoolGrad_1"
  input: "Conv1_layer/Bias"
  attr {
    key: "T"
    value {
      type: DT_FLOAT
    }
  }
}
node {
  name: "BiasAddGrad_1"
  op: "BiasAddGrad"
  input: "ReluGrad_3"
  attr {
    key: "T"
    value {
      type: DT_FLOAT
    }
  }
  attr {
    key: "data_format"
    value {
      s: "NHWC"
    }
  }
}
node {
  name: "Identity_11"
  op: "Identity"
  input: "ReluGrad_3"
  attr {
    key: "T"
    value {
      type: DT_FLOAT
    }
  }
}
node {
  name: "Shape_20"
  op: "Shape"
  input: "input"
  attr {
    key: "T"
    value {
      type: DT_FLOAT
    }
  }
  attr {
    key: "out_type"
    value {
      type: DT_INT32
    }
  }
}
node {
  name: "Conv2DBackpropInput_1"
  op: "Conv2DBackpropInput"
  input: "Shape_20"
  input: "Conv1_layer/W"
  input: "Identity_11"
  attr {
    key: "T"
    value {
      type: DT_FLOAT
    }
  }
  attr {
    key: "data_format"
    value {
      s: "NHWC"
    }
  }
  attr {
    key: "dilations"
    value {
      list {
        i: 1
        i: 1
        i: 1
        i: 1
      }
    }
  }
  attr {
    key: "explicit_paddings"
    value {
      list {
      }
    }
  }
  attr {
    key: "padding"
    value {
      s: "VALID"
    }
  }
  attr {
    key: "strides"
    value {
      list {
        i: 1
        i: 1
        i: 1
        i: 1
      }
    }
  }
  attr {
    key: "use_cudnn_on_gpu"
    value {
      b: true
    }
  }
}
node {
  name: "Shape_21"
  op: "Shape"
  input: "Conv1_layer/W"
  attr {
    key: "T"
    value {
      type: DT_FLOAT
    }
  }
  attr {
    key: "out_type"
    value {
      type: DT_INT32
    }
  }
}
node {
  name: "Conv2DBackpropFilter_1"
  op: "Conv2DBackpropFilter"
  input: "input"
  input: "Shape_21"
  input: "Identity_11"
  attr {
    key: "T"
    value {
      type: DT_FLOAT
    }
  }
  attr {
    key: "data_format"
    value {
      s: "NHWC"
    }
  }
  attr {
    key: "dilations"
    value {
      list {
        i: 1
        i: 1
        i: 1
        i: 1
      }
    }
  }
  attr {
    key: "explicit_paddings"
    value {
      list {
      }
    }
  }
  attr {
    key: "padding"
    value {
      s: "VALID"
    }
  }
  attr {
    key: "strides"
    value {
      list {
        i: 1
        i: 1
        i: 1
        i: 1
      }
    }
  }
  attr {
    key: "use_cudnn_on_gpu"
    value {
      b: true
    }
  }
}
node {
  name: "AddN_5"
  op: "AddN"
  input: "Multiply_4"
  input: "Conv2DBackpropFilter_1"
  attr {
    key: "N"
    value {
      i: 2
    }
  }
  attr {
    key: "T"
    value {
      type: DT_FLOAT
    }
  }
}
node {
  name: "Variable"
  op: "VariableV2"
  attr {
    key: "container"
    value {
      s: ""
    }
  }
  attr {
    key: "dtype"
    value {
      type: DT_FLOAT
    }
  }
  attr {
    key: "shape"
    value {
      shape {
        dim {
          size: 6
        }
      }
    }
  }
  attr {
    key: "shared_name"
    value {
      s: ""
    }
  }
}
node {
  name: "Variable_1"
  op: "VariableV2"
  attr {
    key: "container"
    value {
      s: ""
    }
  }
  attr {
    key: "dtype"
    value {
      type: DT_FLOAT
    }
  }
  attr {
    key: "shape"
    value {
      shape {
        dim {
          size: 6
        }
      }
    }
  }
  attr {
    key: "shared_name"
    value {
      s: ""
    }
  }
}
node {
  name: "Const_8/Const"
  op: "Const"
  attr {
    key: "dtype"
    value {
      type: DT_FLOAT
    }
  }
  attr {
    key: "value"
    value {
      tensor {
        dtype: DT_FLOAT
        tensor_shape {
          dim {
            size: 6
          }
        }
        tensor_content: "\000\000\000\000\000\000\000\000\000\000\000\000\000\000\000\000\000\000\000\000\000\000\000\000"
      }
    }
  }
}
node {
  name: "Assign"
  op: "Assign"
  input: "Variable"
  input: "Const_8/Const"
  attr {
    key: "T"
    value {
      type: DT_FLOAT
    }
  }
  attr {
    key: "use_locking"
    value {
      b: true
    }
  }
  attr {
    key: "validate_shape"
    value {
      b: true
    }
  }
}
node {
  name: "Const_9/Const"
  op: "Const"
  attr {
    key: "dtype"
    value {
      type: DT_FLOAT
    }
  }
  attr {
    key: "value"
    value {
      tensor {
        dtype: DT_FLOAT
        tensor_shape {
          dim {
            size: 6
          }
        }
        tensor_content: "\000\000\000\000\000\000\000\000\000\000\000\000\000\000\000\000\000\000\000\000\000\000\000\000"
      }
    }
  }
}
node {
  name: "Assign_1"
  op: "Assign"
  input: "Variable_1"
  input: "Const_9/Const"
  attr {
    key: "T"
    value {
      type: DT_FLOAT
    }
  }
  attr {
    key: "use_locking"
    value {
      b: true
    }
  }
  attr {
    key: "validate_shape"
    value {
      b: true
    }
  }
}
node {
  name: "Const_10/Const"
  op: "Const"
  attr {
    key: "dtype"
    value {
      type: DT_FLOAT
    }
  }
  attr {
    key: "value"
    value {
      tensor {
        dtype: DT_FLOAT
        tensor_shape {
        }
        float_val: 0
      }
    }
  }
}
node {
  name: "Const_11/Const"
  op: "Const"
  attr {
    key: "dtype"
    value {
      type: DT_FLOAT
    }
  }
  attr {
    key: "value"
    value {
      tensor {
        dtype: DT_FLOAT
        tensor_shape {
        }
        float_val: 0
      }
    }
  }
}
node {
  name: "Const_12/Const"
  op: "Const"
  attr {
    key: "dtype"
    value {
      type: DT_FLOAT
    }
  }
  attr {
    key: "value"
    value {
      tensor {
        dtype: DT_FLOAT
        tensor_shape {
        }
        float_val: 0.001
      }
    }
  }
}
node {
  name: "Const_13/Const"
  op: "Const"
  attr {
    key: "dtype"
    value {
      type: DT_FLOAT
    }
  }
  attr {
    key: "value"
    value {
      tensor {
        dtype: DT_FLOAT
        tensor_shape {
        }
        float_val: 0.9
      }
    }
  }
}
node {
  name: "Const_14/Const"
  op: "Const"
  attr {
    key: "dtype"
    value {
      type: DT_FLOAT
    }
  }
  attr {
    key: "value"
    value {
      tensor {
        dtype: DT_FLOAT
        tensor_shape {
        }
        float_val: 0.999
      }
    }
  }
}
node {
  name: "Const_15/Const"
  op: "Const"
  attr {
    key: "dtype"
    value {
      type: DT_FLOAT
    }
  }
  attr {
    key: "value"
    value {
      tensor {
        dtype: DT_FLOAT
        tensor_shape {
        }
        float_val: 1e-08
      }
    }
  }
}
node {
  name: "ApplyAdam"
  op: "ApplyAdam"
  input: "Conv1_layer/B"
  input: "Variable"
  input: "Variable_1"
  input: "Const_10/Const"
  input: "Const_11/Const"
  input: "Const_12/Const"
  input: "Const_13/Const"
  input: "Const_14/Const"
  input: "Const_15/Const"
  input: "BiasAddGrad_1"
  attr {
    key: "T"
    value {
      type: DT_FLOAT
    }
  }
  attr {
    key: "use_locking"
    value {
      b: false
    }
  }
  attr {
    key: "use_nesterov"
    value {
      b: false
    }
  }
}
node {
  name: "Variable_2"
  op: "VariableV2"
  attr {
    key: "container"
    value {
      s: ""
    }
  }
  attr {
    key: "dtype"
    value {
      type: DT_FLOAT
    }
  }
  attr {
    key: "shape"
    value {
      shape {
        dim {
          size: 16
        }
      }
    }
  }
  attr {
    key: "shared_name"
    value {
      s: ""
    }
  }
}
node {
  name: "Variable_3"
  op: "VariableV2"
  attr {
    key: "container"
    value {
      s: ""
    }
  }
  attr {
    key: "dtype"
    value {
      type: DT_FLOAT
    }
  }
  attr {
    key: "shape"
    value {
      shape {
        dim {
          size: 16
        }
      }
    }
  }
  attr {
    key: "shared_name"
    value {
      s: ""
    }
  }
}
node {
  name: "Const_16/Const"
  op: "Const"
  attr {
    key: "dtype"
    value {
      type: DT_FLOAT
    }
  }
  attr {
    key: "value"
    value {
      tensor {
        dtype: DT_FLOAT
        tensor_shape {
          dim {
            size: 16
          }
        }
        tensor_content: "\000\000\000\000\000\000\000\000\000\000\000\000\000\000\000\000\000\000\000\000\000\000\000\000\000\000\000\000\000\000\000\000\000\000\000\000\000\000\000\000\000\000\000\000\000\000\000\000\000\000\000\000\000\000\000\000\000\000\000\000\000\000\000\000"
      }
    }
  }
}
node {
  name: "Assign_2"
  op: "Assign"
  input: "Variable_2"
  input: "Const_16/Const"
  attr {
    key: "T"
    value {
      type: DT_FLOAT
    }
  }
  attr {
    key: "use_locking"
    value {
      b: true
    }
  }
  attr {
    key: "validate_shape"
    value {
      b: true
    }
  }
}
node {
  name: "Const_17/Const"
  op: "Const"
  attr {
    key: "dtype"
    value {
      type: DT_FLOAT
    }
  }
  attr {
    key: "value"
    value {
      tensor {
        dtype: DT_FLOAT
        tensor_shape {
          dim {
            size: 16
          }
        }
        tensor_content: "\000\000\000\000\000\000\000\000\000\000\000\000\000\000\000\000\000\000\000\000\000\000\000\000\000\000\000\000\000\000\000\000\000\000\000\000\000\000\000\000\000\000\000\000\000\000\000\000\000\000\000\000\000\000\000\000\000\000\000\000\000\000\000\000"
      }
    }
  }
}
node {
  name: "Assign_3"
  op: "Assign"
  input: "Variable_3"
  input: "Const_17/Const"
  attr {
    key: "T"
    value {
      type: DT_FLOAT
    }
  }
  attr {
    key: "use_locking"
    value {
      b: true
    }
  }
  attr {
    key: "validate_shape"
    value {
      b: true
    }
  }
}
node {
  name: "Const_18/Const"
  op: "Const"
  attr {
    key: "dtype"
    value {
      type: DT_FLOAT
    }
  }
  attr {
    key: "value"
    value {
      tensor {
        dtype: DT_FLOAT
        tensor_shape {
        }
        float_val: 0
      }
    }
  }
}
node {
  name: "Const_19/Const"
  op: "Const"
  attr {
    key: "dtype"
    value {
      type: DT_FLOAT
    }
  }
  attr {
    key: "value"
    value {
      tensor {
        dtype: DT_FLOAT
        tensor_shape {
        }
        float_val: 0
      }
    }
  }
}
node {
  name: "Const_20/Const"
  op: "Const"
  attr {
    key: "dtype"
    value {
      type: DT_FLOAT
    }
  }
  attr {
    key: "value"
    value {
      tensor {
        dtype: DT_FLOAT
        tensor_shape {
        }
        float_val: 0.001
      }
    }
  }
}
node {
  name: "Const_21/Const"
  op: "Const"
  attr {
    key: "dtype"
    value {
      type: DT_FLOAT
    }
  }
  attr {
    key: "value"
    value {
      tensor {
        dtype: DT_FLOAT
        tensor_shape {
        }
        float_val: 0.9
      }
    }
  }
}
node {
  name: "Const_22/Const"
  op: "Const"
  attr {
    key: "dtype"
    value {
      type: DT_FLOAT
    }
  }
  attr {
    key: "value"
    value {
      tensor {
        dtype: DT_FLOAT
        tensor_shape {
        }
        float_val: 0.999
      }
    }
  }
}
node {
  name: "Const_23/Const"
  op: "Const"
  attr {
    key: "dtype"
    value {
      type: DT_FLOAT
    }
  }
  attr {
    key: "value"
    value {
      tensor {
        dtype: DT_FLOAT
        tensor_shape {
        }
        float_val: 1e-08
      }
    }
  }
}
node {
  name: "ApplyAdam_1"
  op: "ApplyAdam"
  input: "Conv2_layer/B"
  input: "Variable_2"
  input: "Variable_3"
  input: "Const_18/Const"
  input: "Const_19/Const"
  input: "Const_20/Const"
  input: "Const_21/Const"
  input: "Const_22/Const"
  input: "Const_23/Const"
  input: "BiasAddGrad"
  attr {
    key: "T"
    value {
      type: DT_FLOAT
    }
  }
  attr {
    key: "use_locking"
    value {
      b: false
    }
  }
  attr {
    key: "use_nesterov"
    value {
      b: false
    }
  }
}
node {
  name: "Variable_4"
  op: "VariableV2"
  attr {
    key: "container"
    value {
      s: ""
    }
  }
  attr {
    key: "dtype"
    value {
      type: DT_FLOAT
    }
  }
  attr {
    key: "shape"
    value {
      shape {
        dim {
          size: 120
        }
      }
    }
  }
  attr {
    key: "shared_name"
    value {
      s: ""
    }
  }
}
node {
  name: "Variable_5"
  op: "VariableV2"
  attr {
    key: "container"
    value {
      s: ""
    }
  }
  attr {
    key: "dtype"
    value {
      type: DT_FLOAT
    }
  }
  attr {
    key: "shape"
    value {
      shape {
        dim {
          size: 120
        }
      }
    }
  }
  attr {
    key: "shared_name"
    value {
      s: ""
    }
  }
}
node {
  name: "Const_24/Const"
  op: "Const"
  attr {
    key: "dtype"
    value {
      type: DT_FLOAT
    }
  }
  attr {
    key: "value"
    value {
      tensor {
        dtype: DT_FLOAT
        tensor_shape {
          dim {
            size: 120
          }
        }
        tensor_content: "\000\000\000\000\000\000\000\000\000\000\000\000\000\000\000\000\000\000\000\000\000\000\000\000\000\000\000\000\000\000\000\000\000\000\000\000\000\000\000\000\000\000\000\000\000\000\000\000\000\000\000\000\000\000\000\000\000\000\000\000\000\000\000\000\000\000\000\000\000\000\000\000\000\000\000\000\000\000\000\000\000\000\000\000\000\000\000\000\000\000\000\000\000\000\000\000\000\000\000\000\000\000\000\000\000\000\000\000\000\000\000\000\000\000\000\000\000\000\000\000\000\000\000\000\000\000\000\000\000\000\000\000\000\000\000\000\000\000\000\000\000\000\000\000\000\000\000\000\000\000\000\000\000\000\000\000\000\000\000\000\000\000\000\000\000\000\000\000\000\000\000\000\000\000\000\000\000\000\000\000\000\000\000\000\000\000\000\000\000\000\000\000\000\000\000\000\000\000\000\000\000\000\000\000\000\000\000\000\000\000\000\000\000\000\000\000\000\000\000\000\000\000\000\000\000\000\000\000\000\000\000\000\000\000\000\000\000\000\000\000\000\000\000\000\000\000\000\000\000\000\000\000\000\000\000\000\000\000\000\000\000\000\000\000\000\000\000\000\000\000\000\000\000\000\000\000\000\000\000\000\000\000\000\000\000\000\000\000\000\000\000\000\000\000\000\000\000\000\000\000\000\000\000\000\000\000\000\000\000\000\000\000\000\000\000\000\000\000\000\000\000\000\000\000\000\000\000\000\000\000\000\000\000\000\000\000\000\000\000\000\000\000\000\000\000\000\000\000\000\000\000\000\000\000\000\000\000\000\000\000\000\000\000\000\000\000\000\000\000\000\000\000\000\000\000\000\000\000\000\000\000\000\000\000\000\000\000\000\000\000\000\000\000\000\000\000\000\000\000\000\000\000\000\000\000\000\000\000\000\000\000\000\000\000\000\000\000\000\000\000\000\000\000\000\000\000\000\000\000\000\000\000\000\000\000\000\000\000\000\000\000\000\000\000\000\000\000\000\000\000\000\000\000\000\000\000\000\000\000\000\000\000\000\000\000\000\000\000\000\000\000\000\000\000\000\000\000\000\000\000"
      }
    }
  }
}
node {
  name: "Assign_4"
  op: "Assign"
  input: "Variable_4"
  input: "Const_24/Const"
  attr {
    key: "T"
    value {
      type: DT_FLOAT
    }
  }
  attr {
    key: "use_locking"
    value {
      b: true
    }
  }
  attr {
    key: "validate_shape"
    value {
      b: true
    }
  }
}
node {
  name: "Const_25/Const"
  op: "Const"
  attr {
    key: "dtype"
    value {
      type: DT_FLOAT
    }
  }
  attr {
    key: "value"
    value {
      tensor {
        dtype: DT_FLOAT
        tensor_shape {
          dim {
            size: 120
          }
        }
        tensor_content: "\000\000\000\000\000\000\000\000\000\000\000\000\000\000\000\000\000\000\000\000\000\000\000\000\000\000\000\000\000\000\000\000\000\000\000\000\000\000\000\000\000\000\000\000\000\000\000\000\000\000\000\000\000\000\000\000\000\000\000\000\000\000\000\000\000\000\000\000\000\000\000\000\000\000\000\000\000\000\000\000\000\000\000\000\000\000\000\000\000\000\000\000\000\000\000\000\000\000\000\000\000\000\000\000\000\000\000\000\000\000\000\000\000\000\000\000\000\000\000\000\000\000\000\000\000\000\000\000\000\000\000\000\000\000\000\000\000\000\000\000\000\000\000\000\000\000\000\000\000\000\000\000\000\000\000\000\000\000\000\000\000\000\000\000\000\000\000\000\000\000\000\000\000\000\000\000\000\000\000\000\000\000\000\000\000\000\000\000\000\000\000\000\000\000\000\000\000\000\000\000\000\000\000\000\000\000\000\000\000\000\000\000\000\000\000\000\000\000\000\000\000\000\000\000\000\000\000\000\000\000\000\000\000\000\000\000\000\000\000\000\000\000\000\000\000\000\000\000\000\000\000\000\000\000\000\000\000\000\000\000\000\000\000\000\000\000\000\000\000\000\000\000\000\000\000\000\000\000\000\000\000\000\000\000\000\000\000\000\000\000\000\000\000\000\000\000\000\000\000\000\000\000\000\000\000\000\000\000\000\000\000\000\000\000\000\000\000\000\000\000\000\000\000\000\000\000\000\000\000\000\000\000\000\000\000\000\000\000\000\000\000\000\000\000\000\000\000\000\000\000\000\000\000\000\000\000\000\000\000\000\000\000\000\000\000\000\000\000\000\000\000\000\000\000\000\000\000\000\000\000\000\000\000\000\000\000\000\000\000\000\000\000\000\000\000\000\000\000\000\000\000\000\000\000\000\000\000\000\000\000\000\000\000\000\000\000\000\000\000\000\000\000\000\000\000\000\000\000\000\000\000\000\000\000\000\000\000\000\000\000\000\000\000\000\000\000\000\000\000\000\000\000\000\000\000\000\000\000\000\000\000\000\000\000\000\000\000\000\000\000\000\000\000\000\000\000\000\000\000\000"
      }
    }
  }
}
node {
  name: "Assign_5"
  op: "Assign"
  input: "Variable_5"
  input: "Const_25/Const"
  attr {
    key: "T"
    value {
      type: DT_FLOAT
    }
  }
  attr {
    key: "use_locking"
    value {
      b: true
    }
  }
  attr {
    key: "validate_shape"
    value {
      b: true
    }
  }
}
node {
  name: "Const_26/Const"
  op: "Const"
  attr {
    key: "dtype"
    value {
      type: DT_FLOAT
    }
  }
  attr {
    key: "value"
    value {
      tensor {
        dtype: DT_FLOAT
        tensor_shape {
        }
        float_val: 0
      }
    }
  }
}
node {
  name: "Const_27/Const"
  op: "Const"
  attr {
    key: "dtype"
    value {
      type: DT_FLOAT
    }
  }
  attr {
    key: "value"
    value {
      tensor {
        dtype: DT_FLOAT
        tensor_shape {
        }
        float_val: 0
      }
    }
  }
}
node {
  name: "Const_28/Const"
  op: "Const"
  attr {
    key: "dtype"
    value {
      type: DT_FLOAT
    }
  }
  attr {
    key: "value"
    value {
      tensor {
        dtype: DT_FLOAT
        tensor_shape {
        }
        float_val: 0.001
      }
    }
  }
}
node {
  name: "Const_29/Const"
  op: "Const"
  attr {
    key: "dtype"
    value {
      type: DT_FLOAT
    }
  }
  attr {
    key: "value"
    value {
      tensor {
        dtype: DT_FLOAT
        tensor_shape {
        }
        float_val: 0.9
      }
    }
  }
}
node {
  name: "Const_30/Const"
  op: "Const"
  attr {
    key: "dtype"
    value {
      type: DT_FLOAT
    }
  }
  attr {
    key: "value"
    value {
      tensor {
        dtype: DT_FLOAT
        tensor_shape {
        }
        float_val: 0.999
      }
    }
  }
}
node {
  name: "Const_31/Const"
  op: "Const"
  attr {
    key: "dtype"
    value {
      type: DT_FLOAT
    }
  }
  attr {
    key: "value"
    value {
      tensor {
        dtype: DT_FLOAT
        tensor_shape {
        }
        float_val: 1e-08
      }
    }
  }
}
node {
  name: "ApplyAdam_2"
  op: "ApplyAdam"
  input: "Dense1_layer/B"
  input: "Variable_4"
  input: "Variable_5"
  input: "Const_26/Const"
  input: "Const_27/Const"
  input: "Const_28/Const"
  input: "Const_29/Const"
  input: "Const_30/Const"
  input: "Const_31/Const"
  input: "Reshape_13"
  attr {
    key: "T"
    value {
      type: DT_FLOAT
    }
  }
  attr {
    key: "use_locking"
    value {
      b: false
    }
  }
  attr {
    key: "use_nesterov"
    value {
      b: false
    }
  }
}
node {
  name: "Variable_6"
  op: "VariableV2"
  attr {
    key: "container"
    value {
      s: ""
    }
  }
  attr {
    key: "dtype"
    value {
      type: DT_FLOAT
    }
  }
  attr {
    key: "shape"
    value {
      shape {
        dim {
          size: 84
        }
      }
    }
  }
  attr {
    key: "shared_name"
    value {
      s: ""
    }
  }
}
node {
  name: "Variable_7"
  op: "VariableV2"
  attr {
    key: "container"
    value {
      s: ""
    }
  }
  attr {
    key: "dtype"
    value {
      type: DT_FLOAT
    }
  }
  attr {
    key: "shape"
    value {
      shape {
        dim {
          size: 84
        }
      }
    }
  }
  attr {
    key: "shared_name"
    value {
      s: ""
    }
  }
}
node {
  name: "Const_32/Const"
  op: "Const"
  attr {
    key: "dtype"
    value {
      type: DT_FLOAT
    }
  }
  attr {
    key: "value"
    value {
      tensor {
        dtype: DT_FLOAT
        tensor_shape {
          dim {
            size: 84
          }
        }
        tensor_content: "\000\000\000\000\000\000\000\000\000\000\000\000\000\000\000\000\000\000\000\000\000\000\000\000\000\000\000\000\000\000\000\000\000\000\000\000\000\000\000\000\000\000\000\000\000\000\000\000\000\000\000\000\000\000\000\000\000\000\000\000\000\000\000\000\000\000\000\000\000\000\000\000\000\000\000\000\000\000\000\000\000\000\000\000\000\000\000\000\000\000\000\000\000\000\000\000\000\000\000\000\000\000\000\000\000\000\000\000\000\000\000\000\000\000\000\000\000\000\000\000\000\000\000\000\000\000\000\000\000\000\000\000\000\000\000\000\000\000\000\000\000\000\000\000\000\000\000\000\000\000\000\000\000\000\000\000\000\000\000\000\000\000\000\000\000\000\000\000\000\000\000\000\000\000\000\000\000\000\000\000\000\000\000\000\000\000\000\000\000\000\000\000\000\000\000\000\000\000\000\000\000\000\000\000\000\000\000\000\000\000\000\000\000\000\000\000\000\000\000\000\000\000\000\000\000\000\000\000\000\000\000\000\000\000\000\000\000\000\000\000\000\000\000\000\000\000\000\000\000\000\000\000\000\000\000\000\000\000\000\000\000\000\000\000\000\000\000\000\000\000\000\000\000\000\000\000\000\000\000\000\000\000\000\000\000\000\000\000\000\000\000\000\000\000\000\000\000\000\000\000\000\000\000\000\000\000\000\000\000\000\000\000\000\000\000\000\000\000\000\000\000\000\000\000\000\000\000\000\000\000\000\000\000\000\000\000"
      }
    }
  }
}
node {
  name: "Assign_6"
  op: "Assign"
  input: "Variable_6"
  input: "Const_32/Const"
  attr {
    key: "T"
    value {
      type: DT_FLOAT
    }
  }
  attr {
    key: "use_locking"
    value {
      b: true
    }
  }
  attr {
    key: "validate_shape"
    value {
      b: true
    }
  }
}
node {
  name: "Const_33/Const"
  op: "Const"
  attr {
    key: "dtype"
    value {
      type: DT_FLOAT
    }
  }
  attr {
    key: "value"
    value {
      tensor {
        dtype: DT_FLOAT
        tensor_shape {
          dim {
            size: 84
          }
        }
        tensor_content: "\000\000\000\000\000\000\000\000\000\000\000\000\000\000\000\000\000\000\000\000\000\000\000\000\000\000\000\000\000\000\000\000\000\000\000\000\000\000\000\000\000\000\000\000\000\000\000\000\000\000\000\000\000\000\000\000\000\000\000\000\000\000\000\000\000\000\000\000\000\000\000\000\000\000\000\000\000\000\000\000\000\000\000\000\000\000\000\000\000\000\000\000\000\000\000\000\000\000\000\000\000\000\000\000\000\000\000\000\000\000\000\000\000\000\000\000\000\000\000\000\000\000\000\000\000\000\000\000\000\000\000\000\000\000\000\000\000\000\000\000\000\000\000\000\000\000\000\000\000\000\000\000\000\000\000\000\000\000\000\000\000\000\000\000\000\000\000\000\000\000\000\000\000\000\000\000\000\000\000\000\000\000\000\000\000\000\000\000\000\000\000\000\000\000\000\000\000\000\000\000\000\000\000\000\000\000\000\000\000\000\000\000\000\000\000\000\000\000\000\000\000\000\000\000\000\000\000\000\000\000\000\000\000\000\000\000\000\000\000\000\000\000\000\000\000\000\000\000\000\000\000\000\000\000\000\000\000\000\000\000\000\000\000\000\000\000\000\000\000\000\000\000\000\000\000\000\000\000\000\000\000\000\000\000\000\000\000\000\000\000\000\000\000\000\000\000\000\000\000\000\000\000\000\000\000\000\000\000\000\000\000\000\000\000\000\000\000\000\000\000\000\000\000\000\000\000\000\000\000\000\000\000\000\000\000\000"
      }
    }
  }
}
node {
  name: "Assign_7"
  op: "Assign"
  input: "Variable_7"
  input: "Const_33/Const"
  attr {
    key: "T"
    value {
      type: DT_FLOAT
    }
  }
  attr {
    key: "use_locking"
    value {
      b: true
    }
  }
  attr {
    key: "validate_shape"
    value {
      b: true
    }
  }
}
node {
  name: "Const_34/Const"
  op: "Const"
  attr {
    key: "dtype"
    value {
      type: DT_FLOAT
    }
  }
  attr {
    key: "value"
    value {
      tensor {
        dtype: DT_FLOAT
        tensor_shape {
        }
        float_val: 0
      }
    }
  }
}
node {
  name: "Const_35/Const"
  op: "Const"
  attr {
    key: "dtype"
    value {
      type: DT_FLOAT
    }
  }
  attr {
    key: "value"
    value {
      tensor {
        dtype: DT_FLOAT
        tensor_shape {
        }
        float_val: 0
      }
    }
  }
}
node {
  name: "Const_36/Const"
  op: "Const"
  attr {
    key: "dtype"
    value {
      type: DT_FLOAT
    }
  }
  attr {
    key: "value"
    value {
      tensor {
        dtype: DT_FLOAT
        tensor_shape {
        }
        float_val: 0.001
      }
    }
  }
}
node {
  name: "Const_37/Const"
  op: "Const"
  attr {
    key: "dtype"
    value {
      type: DT_FLOAT
    }
  }
  attr {
    key: "value"
    value {
      tensor {
        dtype: DT_FLOAT
        tensor_shape {
        }
        float_val: 0.9
      }
    }
  }
}
node {
  name: "Const_38/Const"
  op: "Const"
  attr {
    key: "dtype"
    value {
      type: DT_FLOAT
    }
  }
  attr {
    key: "value"
    value {
      tensor {
        dtype: DT_FLOAT
        tensor_shape {
        }
        float_val: 0.999
      }
    }
  }
}
node {
  name: "Const_39/Const"
  op: "Const"
  attr {
    key: "dtype"
    value {
      type: DT_FLOAT
    }
  }
  attr {
    key: "value"
    value {
      tensor {
        dtype: DT_FLOAT
        tensor_shape {
        }
        float_val: 1e-08
      }
    }
  }
}
node {
  name: "ApplyAdam_3"
  op: "ApplyAdam"
  input: "Dense2_layer/B"
  input: "Variable_6"
  input: "Variable_7"
  input: "Const_34/Const"
  input: "Const_35/Const"
  input: "Const_36/Const"
  input: "Const_37/Const"
  input: "Const_38/Const"
  input: "Const_39/Const"
  input: "Reshape_11"
  attr {
    key: "T"
    value {
      type: DT_FLOAT
    }
  }
  attr {
    key: "use_locking"
    value {
      b: false
    }
  }
  attr {
    key: "use_nesterov"
    value {
      b: false
    }
  }
}
node {
  name: "Variable_8"
  op: "VariableV2"
  attr {
    key: "container"
    value {
      s: ""
    }
  }
  attr {
    key: "dtype"
    value {
      type: DT_FLOAT
    }
  }
  attr {
    key: "shape"
    value {
      shape {
        dim {
          size: 29
        }
      }
    }
  }
  attr {
    key: "shared_name"
    value {
      s: ""
    }
  }
}
node {
  name: "Variable_9"
  op: "VariableV2"
  attr {
    key: "container"
    value {
      s: ""
    }
  }
  attr {
    key: "dtype"
    value {
      type: DT_FLOAT
    }
  }
  attr {
    key: "shape"
    value {
      shape {
        dim {
          size: 29
        }
      }
    }
  }
  attr {
    key: "shared_name"
    value {
      s: ""
    }
  }
}
node {
  name: "Const_40/Const"
  op: "Const"
  attr {
    key: "dtype"
    value {
      type: DT_FLOAT
    }
  }
  attr {
    key: "value"
    value {
      tensor {
        dtype: DT_FLOAT
        tensor_shape {
          dim {
            size: 29
          }
        }
        tensor_content: "\000\000\000\000\000\000\000\000\000\000\000\000\000\000\000\000\000\000\000\000\000\000\000\000\000\000\000\000\000\000\000\000\000\000\000\000\000\000\000\000\000\000\000\000\000\000\000\000\000\000\000\000\000\000\000\000\000\000\000\000\000\000\000\000\000\000\000\000\000\000\000\000\000\000\000\000\000\000\000\000\000\000\000\000\000\000\000\000\000\000\000\000\000\000\000\000\000\000\000\000\000\000\000\000\000\000\000\000\000\000\000\000\000\000\000\000"
      }
    }
  }
}
node {
  name: "Assign_8"
  op: "Assign"
  input: "Variable_8"
  input: "Const_40/Const"
  attr {
    key: "T"
    value {
      type: DT_FLOAT
    }
  }
  attr {
    key: "use_locking"
    value {
      b: true
    }
  }
  attr {
    key: "validate_shape"
    value {
      b: true
    }
  }
}
node {
  name: "Const_41/Const"
  op: "Const"
  attr {
    key: "dtype"
    value {
      type: DT_FLOAT
    }
  }
  attr {
    key: "value"
    value {
      tensor {
        dtype: DT_FLOAT
        tensor_shape {
          dim {
            size: 29
          }
        }
        tensor_content: "\000\000\000\000\000\000\000\000\000\000\000\000\000\000\000\000\000\000\000\000\000\000\000\000\000\000\000\000\000\000\000\000\000\000\000\000\000\000\000\000\000\000\000\000\000\000\000\000\000\000\000\000\000\000\000\000\000\000\000\000\000\000\000\000\000\000\000\000\000\000\000\000\000\000\000\000\000\000\000\000\000\000\000\000\000\000\000\000\000\000\000\000\000\000\000\000\000\000\000\000\000\000\000\000\000\000\000\000\000\000\000\000\000\000\000\000"
      }
    }
  }
}
node {
  name: "Assign_9"
  op: "Assign"
  input: "Variable_9"
  input: "Const_41/Const"
  attr {
    key: "T"
    value {
      type: DT_FLOAT
    }
  }
  attr {
    key: "use_locking"
    value {
      b: true
    }
  }
  attr {
    key: "validate_shape"
    value {
      b: true
    }
  }
}
node {
  name: "Const_42/Const"
  op: "Const"
  attr {
    key: "dtype"
    value {
      type: DT_FLOAT
    }
  }
  attr {
    key: "value"
    value {
      tensor {
        dtype: DT_FLOAT
        tensor_shape {
        }
        float_val: 0
      }
    }
  }
}
node {
  name: "Const_43/Const"
  op: "Const"
  attr {
    key: "dtype"
    value {
      type: DT_FLOAT
    }
  }
  attr {
    key: "value"
    value {
      tensor {
        dtype: DT_FLOAT
        tensor_shape {
        }
        float_val: 0
      }
    }
  }
}
node {
  name: "Const_44/Const"
  op: "Const"
  attr {
    key: "dtype"
    value {
      type: DT_FLOAT
    }
  }
  attr {
    key: "value"
    value {
      tensor {
        dtype: DT_FLOAT
        tensor_shape {
        }
        float_val: 0.001
      }
    }
  }
}
node {
  name: "Const_45/Const"
  op: "Const"
  attr {
    key: "dtype"
    value {
      type: DT_FLOAT
    }
  }
  attr {
    key: "value"
    value {
      tensor {
        dtype: DT_FLOAT
        tensor_shape {
        }
        float_val: 0.9
      }
    }
  }
}
node {
  name: "Const_46/Const"
  op: "Const"
  attr {
    key: "dtype"
    value {
      type: DT_FLOAT
    }
  }
  attr {
    key: "value"
    value {
      tensor {
        dtype: DT_FLOAT
        tensor_shape {
        }
        float_val: 0.999
      }
    }
  }
}
node {
  name: "Const_47/Const"
  op: "Const"
  attr {
    key: "dtype"
    value {
      type: DT_FLOAT
    }
  }
  attr {
    key: "value"
    value {
      tensor {
        dtype: DT_FLOAT
        tensor_shape {
        }
        float_val: 1e-08
      }
    }
  }
}
node {
  name: "ApplyAdam_4"
  op: "ApplyAdam"
  input: "Dense3_layer/B"
  input: "Variable_8"
  input: "Variable_9"
  input: "Const_42/Const"
  input: "Const_43/Const"
  input: "Const_44/Const"
  input: "Const_45/Const"
  input: "Const_46/Const"
  input: "Const_47/Const"
  input: "Reshape_9"
  attr {
    key: "T"
    value {
      type: DT_FLOAT
    }
  }
  attr {
    key: "use_locking"
    value {
      b: false
    }
  }
  attr {
    key: "use_nesterov"
    value {
      b: false
    }
  }
}
node {
  name: "Variable_10"
  op: "VariableV2"
  attr {
    key: "container"
    value {
      s: ""
    }
  }
  attr {
    key: "dtype"
    value {
      type: DT_FLOAT
    }
  }
  attr {
    key: "shape"
    value {
      shape {
        dim {
          size: 3
        }
        dim {
          size: 3
        }
        dim {
          size: 1
        }
        dim {
          size: 6
        }
      }
    }
  }
  attr {
    key: "shared_name"
    value {
      s: ""
    }
  }
}
node {
  name: "Variable_11"
  op: "VariableV2"
  attr {
    key: "container"
    value {
      s: ""
    }
  }
  attr {
    key: "dtype"
    value {
      type: DT_FLOAT
    }
  }
  attr {
    key: "shape"
    value {
      shape {
        dim {
          size: 3
        }
        dim {
          size: 3
        }
        dim {
          size: 1
        }
        dim {
          size: 6
        }
      }
    }
  }
  attr {
    key: "shared_name"
    value {
      s: ""
    }
  }
}
node {
  name: "Const_48/Const"
  op: "Const"
  attr {
    key: "dtype"
    value {
      type: DT_FLOAT
    }
  }
  attr {
    key: "value"
    value {
      tensor {
        dtype: DT_FLOAT
        tensor_shape {
          dim {
            size: 3
          }
          dim {
            size: 3
          }
          dim {
            size: 1
          }
          dim {
            size: 6
          }
        }
        tensor_content: "\000\000\000\000\000\000\000\000\000\000\000\000\000\000\000\000\000\000\000\000\000\000\000\000\000\000\000\000\000\000\000\000\000\000\000\000\000\000\000\000\000\000\000\000\000\000\000\000\000\000\000\000\000\000\000\000\000\000\000\000\000\000\000\000\000\000\000\000\000\000\000\000\000\000\000\000\000\000\000\000\000\000\000\000\000\000\000\000\000\000\000\000\000\000\000\000\000\000\000\000\000\000\000\000\000\000\000\000\000\000\000\000\000\000\000\000\000\000\000\000\000\000\000\000\000\000\000\000\000\000\000\000\000\000\000\000\000\000\000\000\000\000\000\000\000\000\000\000\000\000\000\000\000\000\000\000\000\000\000\000\000\000\000\000\000\000\000\000\000\000\000\000\000\000\000\000\000\000\000\000\000\000\000\000\000\000\000\000\000\000\000\000\000\000\000\000\000\000\000\000\000\000\000\000\000\000\000\000\000\000\000\000\000\000\000\000"
      }
    }
  }
}
node {
  name: "Assign_10"
  op: "Assign"
  input: "Variable_10"
  input: "Const_48/Const"
  attr {
    key: "T"
    value {
      type: DT_FLOAT
    }
  }
  attr {
    key: "use_locking"
    value {
      b: true
    }
  }
  attr {
    key: "validate_shape"
    value {
      b: true
    }
  }
}
node {
  name: "Const_49/Const"
  op: "Const"
  attr {
    key: "dtype"
    value {
      type: DT_FLOAT
    }
  }
  attr {
    key: "value"
    value {
      tensor {
        dtype: DT_FLOAT
        tensor_shape {
          dim {
            size: 3
          }
          dim {
            size: 3
          }
          dim {
            size: 1
          }
          dim {
            size: 6
          }
        }
        tensor_content: "\000\000\000\000\000\000\000\000\000\000\000\000\000\000\000\000\000\000\000\000\000\000\000\000\000\000\000\000\000\000\000\000\000\000\000\000\000\000\000\000\000\000\000\000\000\000\000\000\000\000\000\000\000\000\000\000\000\000\000\000\000\000\000\000\000\000\000\000\000\000\000\000\000\000\000\000\000\000\000\000\000\000\000\000\000\000\000\000\000\000\000\000\000\000\000\000\000\000\000\000\000\000\000\000\000\000\000\000\000\000\000\000\000\000\000\000\000\000\000\000\000\000\000\000\000\000\000\000\000\000\000\000\000\000\000\000\000\000\000\000\000\000\000\000\000\000\000\000\000\000\000\000\000\000\000\000\000\000\000\000\000\000\000\000\000\000\000\000\000\000\000\000\000\000\000\000\000\000\000\000\000\000\000\000\000\000\000\000\000\000\000\000\000\000\000\000\000\000\000\000\000\000\000\000\000\000\000\000\000\000\000\000\000\000\000\000"
      }
    }
  }
}
node {
  name: "Assign_11"
  op: "Assign"
  input: "Variable_11"
  input: "Const_49/Const"
  attr {
    key: "T"
    value {
      type: DT_FLOAT
    }
  }
  attr {
    key: "use_locking"
    value {
      b: true
    }
  }
  attr {
    key: "validate_shape"
    value {
      b: true
    }
  }
}
node {
  name: "Const_50/Const"
  op: "Const"
  attr {
    key: "dtype"
    value {
      type: DT_FLOAT
    }
  }
  attr {
    key: "value"
    value {
      tensor {
        dtype: DT_FLOAT
        tensor_shape {
        }
        float_val: 0
      }
    }
  }
}
node {
  name: "Const_51/Const"
  op: "Const"
  attr {
    key: "dtype"
    value {
      type: DT_FLOAT
    }
  }
  attr {
    key: "value"
    value {
      tensor {
        dtype: DT_FLOAT
        tensor_shape {
        }
        float_val: 0
      }
    }
  }
}
node {
  name: "Const_52/Const"
  op: "Const"
  attr {
    key: "dtype"
    value {
      type: DT_FLOAT
    }
  }
  attr {
    key: "value"
    value {
      tensor {
        dtype: DT_FLOAT
        tensor_shape {
        }
        float_val: 0.001
      }
    }
  }
}
node {
  name: "Const_53/Const"
  op: "Const"
  attr {
    key: "dtype"
    value {
      type: DT_FLOAT
    }
  }
  attr {
    key: "value"
    value {
      tensor {
        dtype: DT_FLOAT
        tensor_shape {
        }
        float_val: 0.9
      }
    }
  }
}
node {
  name: "Const_54/Const"
  op: "Const"
  attr {
    key: "dtype"
    value {
      type: DT_FLOAT
    }
  }
  attr {
    key: "value"
    value {
      tensor {
        dtype: DT_FLOAT
        tensor_shape {
        }
        float_val: 0.999
      }
    }
  }
}
node {
  name: "Const_55/Const"
  op: "Const"
  attr {
    key: "dtype"
    value {
      type: DT_FLOAT
    }
  }
  attr {
    key: "value"
    value {
      tensor {
        dtype: DT_FLOAT
        tensor_shape {
        }
        float_val: 1e-08
      }
    }
  }
}
node {
  name: "ApplyAdam_5"
  op: "ApplyAdam"
  input: "Conv1_layer/W"
  input: "Variable_10"
  input: "Variable_11"
  input: "Const_50/Const"
  input: "Const_51/Const"
  input: "Const_52/Const"
  input: "Const_53/Const"
  input: "Const_54/Const"
  input: "Const_55/Const"
  input: "AddN_5"
  attr {
    key: "T"
    value {
      type: DT_FLOAT
    }
  }
  attr {
    key: "use_locking"
    value {
      b: false
    }
  }
  attr {
    key: "use_nesterov"
    value {
      b: false
    }
  }
}
node {
  name: "Variable_12"
  op: "VariableV2"
  attr {
    key: "container"
    value {
      s: ""
    }
  }
  attr {
    key: "dtype"
    value {
      type: DT_FLOAT
    }
  }
  attr {
    key: "shape"
    value {
      shape {
        dim {
          size: 3
        }
        dim {
          size: 3
        }
        dim {
          size: 6
        }
        dim {
          size: 16
        }
      }
    }
  }
  attr {
    key: "shared_name"
    value {
      s: ""
    }
  }
}
node {
  name: "Variable_13"
  op: "VariableV2"
  attr {
    key: "container"
    value {
      s: ""
    }
  }
  attr {
    key: "dtype"
    value {
      type: DT_FLOAT
    }
  }
  attr {
    key: "shape"
    value {
      shape {
        dim {
          size: 3
        }
        dim {
          size: 3
        }
        dim {
          size: 6
        }
        dim {
          size: 16
        }
      }
    }
  }
  attr {
    key: "shared_name"
    value {
      s: ""
    }
  }
}
node {
  name: "Const_56/Const"
  op: "Const"
  attr {
    key: "dtype"
    value {
      type: DT_FLOAT
    }
  }
  attr {
    key: "value"
    value {
      tensor {
        dtype: DT_FLOAT
        tensor_shape {
          dim {
            size: 3
          }
          dim {
            size: 3
          }
          dim {
            size: 6
          }
          dim {
            size: 16
          }
        }
